<pad>	0
<unk>	0
[CLS]	0
[SEP]	0
[MASK]	0
(	0
)	0
"	0
-	0
.	0
–	0
£	0
€	0
▁	-2.18897
▁the	-3.07046
,	-3.19023
▁of	-3.84038
▁and	-3.90112
s	-3.98745
▁in	-4.02529
▁to	-4.11988
▁a	-4.12029
'	-4.66983
▁was	-4.71638
▁he	-5.01875
▁is	-5.1344
▁for	-5.13717
▁on	-5.16612
▁as	-5.17253
▁with	-5.26674
▁that	-5.27698
▁i	-5.28573
▁it	-5.31903
▁his	-5.33088
▁by	-5.46618
▁at	-5.50243
▁her	-5.63072
▁from	-5.64459
t	-5.72809
▁she	-5.74154
▁an	-5.97169
▁had	-5.98572
▁you	-5.99577
d	-6.02673
▁be	-6.03156
:	-6.0695
▁were	-6.07489
▁but	-6.15265
▁this	-6.17737
i	-6.18926
▁are	-6.23201
▁my	-6.33094
▁not	-6.34075
▁one	-6.37951
▁or	-6.39012
▁me	-6.39659
▁which	-6.39764
▁have	-6.40973
a	-6.42151
▁they	-6.42303
?	-6.42328
▁him	-6.46108
e	-6.56261
▁has	-6.56911
▁first	-6.5801
▁all	-6.58411
▁their	-6.59372
▁also	-6.60981
ing	-6.62165
ed	-6.63919
▁out	-6.64346
▁up	-6.65525
▁who	-6.66534
;	-6.67707
▁been	-6.69055
▁after	-6.70115
▁when	-6.71438
▁into	-6.74839
▁new	-6.74952
m	-6.75288
▁there	-6.77019
▁two	-6.80739
▁its	-6.81006
▁would	-6.83967
▁over	-6.87167
▁time	-6.8721
▁so	-6.88286
▁said	-6.92655
▁about	-6.92942
▁other	-6.93468
▁no	-6.95107
▁more	-6.97471
▁can	-6.98718
y	-6.99795
▁then	-7.01511
▁we	-7.01778
th	-7.0317
▁back	-7.0542
▁what	-7.07443
re	-7.09367
▁if	-7.09635
▁like	-7.10495
ly	-7.1179
n	-7.13194
▁only	-7.14591
▁them	-7.17918
er	-7.18488
▁do	-7.19064
in	-7.20056
▁some	-7.22326
▁could	-7.23233
o	-7.24173
▁during	-7.27382
▁where	-7.28371
▁just	-7.28773
▁before	-7.29572
▁school	-7.30887
▁made	-7.32042
/	-7.32135
▁than	-7.32569
▁through	-7.334
▁de	-7.33405
▁years	-7.38892
▁may	-7.39097
the	-7.40187
▁down	-7.40578
▁world	-7.40943
▁most	-7.4157
▁between	-7.42986
▁will	-7.4327
▁now	-7.45064
▁under	-7.45703
▁three	-7.45966
▁while	-7.4645
▁well	-7.47022
2	-7.48206
▁city	-7.52662
▁1	-7.52917
▁later	-7.53384
r	-7.54364
▁around	-7.55047
▁part	-7.56483
▁being	-7.56509
▁know	-7.5662
▁did	-7.56888
▁such	-7.58002
▁state	-7.58041
▁used	-7.58053
▁people	-7.5884
▁against	-7.59441
c	-7.60197
▁many	-7.60691
▁national	-7.60893
▁second	-7.61967
▁your	-7.62722
▁university	-7.62921
▁both	-7.63761
▁head	-7.65151
▁these	-7.65851
▁year	-7.66321
es	-7.66643
▁way	-7.67983
▁go	-7.68829
▁until	-7.6903
▁get	-7.69312
1	-7.69381
▁even	-7.69869
▁known	-7.70707
▁off	-7.70728
▁man	-7.71299
▁work	-7.71315
▁film	-7.72068
▁2	-7.72614
▁team	-7.73097
▁still	-7.7433
▁long	-7.74603
▁war	-7.75584
man	-7.76148
▁became	-7.76493
▁since	-7.76587
▁south	-7.76627
▁united	-7.76748
▁us	-7.78049
▁high	-7.78087
▁how	-7.78134
▁because	-7.78255
▁any	-7.78466
!	-7.79377
▁again	-7.79454
▁american	-7.80825
▁family	-7.80874
▁house	-7.81314
al	-7.82159
▁right	-7.82417
▁eyes	-7.82717
ve	-7.82963
▁see	-7.83751
k	-7.84859
▁season	-7.85123
▁took	-7.85278
▁north	-7.85922
▁life	-7.86762
▁states	-7.868
▁3	-7.87358
▁name	-7.87692
▁same	-7.88177
▁each	-7.89311
▁however	-7.8938
▁day	-7.89453
▁place	-7.89697
an	-7.89898
ll	-7.90051
▁much	-7.9056
▁home	-7.90996
▁group	-7.91038
▁including	-7.91585
▁found	-7.92658
▁area	-7.93125
on	-7.93289
en	-7.93324
b	-7.9352
▁don	-7.93812
▁four	-7.939
▁didn	-7.94031
▁hand	-7.94436
▁left	-7.94514
▁another	-7.94837
▁called	-7.95081
▁going	-7.95111
▁away	-7.96319
▁won	-7.96353
▁series	-7.96458
▁music	-7.96597
▁make	-7.96988
▁number	-7.97135
▁here	-7.98133
▁last	-7.98469
▁company	-7.9849
▁several	-7.98613
▁john	-7.9941
3	-7.99532
▁end	-7.99766
it	-7.99781
▁never	-8.01171
▁album	-8.01252
you	-8.01648
▁best	-8.01922
▁take	-8.02061
or	-8.02609
▁following	-8.02665
▁game	-8.02785
no	-8.03262
h	-8.03491
▁very	-8.03804
▁good	-8.04492
l	-8.04732
▁district	-8.05459
▁played	-8.05738
▁own	-8.05741
▁want	-8.06122
▁began	-8.06331
▁released	-8.06497
to	-8.06766
g	-8.06966
5	-8.07286
▁little	-8.07654
▁too	-8.07811
us	-8.07992
▁4	-8.08012
▁held	-8.08422
▁side	-8.08763
▁county	-8.09217
▁c	-8.09341
▁those	-8.09378
▁early	-8.09396
▁use	-8.09957
▁face	-8.10335
▁think	-8.10854
▁league	-8.11136
▁&	-8.11234
▁west	-8.12357
▁came	-8.12677
▁air	-8.13285
▁government	-8.13555
▁small	-8.14219
▁march	-8.14908
▁town	-8.15015
▁u	-8.15323
▁club	-8.16289
▁thought	-8.16736
and	-8.1749
u	-8.17986
▁looked	-8.18194
▁line	-8.18326
▁international	-8.18811
▁june	-8.18883
▁went	-8.18962
▁general	-8.19014
▁show	-8.19355
▁september	-8.19572
4	-8.19872
▁something	-8.2002
▁re	-8.20174
▁along	-8.20315
▁men	-8.20466
▁york	-8.20543
p	-8.20735
▁m	-8.21215
▁water	-8.21495
▁set	-8.21505
▁few	-8.21553
▁october	-8.21587
▁station	-8.21952
▁july	-8.22389
▁college	-8.22476
▁old	-8.22538
▁august	-8.22638
▁public	-8.22642
▁our	-8.22834
▁black	-8.23077
▁january	-8.23431
▁father	-8.23918
▁member	-8.24518
▁band	-8.24639
▁church	-8.25268
na	-8.25297
▁co	-8.25505
▁april	-8.25848
▁next	-8.2615
▁system	-8.26174
▁got	-8.26288
▁5	-8.26641
▁10	-8.27033
▁la	-8.27114
▁b	-8.27204
▁located	-8.27518
▁former	-8.27798
▁room	-8.27902
▁song	-8.28094
▁love	-8.28199
▁come	-8.28265
▁river	-8.28477
▁east	-8.29018
▁night	-8.29344
▁november	-8.29463
▁single	-8.2968
▁party	-8.29797
▁16	-8.29969
▁age	-8.30376
▁car	-8.306
▁population	-8.3201
▁p	-8.32082
▁every	-8.3219
▁building	-8.32206
▁st	-8.32343
▁five	-8.32459
▁december	-8.32528
▁15	-8.32747
▁body	-8.32803
▁white	-8.33012
▁book	-8.33552
▁look	-8.33587
▁though	-8.33751
▁within	-8.33991
▁women	-8.34067
▁service	-8.34147
▁without	-8.34227
▁un	-8.3445
▁open	-8.34793
▁17	-8.3501
▁large	-8.35023
▁top	-8.35083
▁death	-8.35228
▁started	-8.35281
▁great	-8.35563
▁local	-8.35729
▁need	-8.3631
▁named	-8.3632
▁should	-8.36544
6	-8.36792
z	-8.37102
born	-8.37635
▁once	-8.37744
▁road	-8.3804
st	-8.38056
▁moved	-8.38059
▁born	-8.38511
0	-8.38541
▁british	-8.38805
▁order	-8.38913
▁12	-8.39121
▁children	-8.39212
▁built	-8.39422
▁door	-8.39625
▁major	-8.39878
▁say	-8.39921
x	-8.39928
▁due	-8.39933
▁f	-8.39996
▁village	-8.40384
▁6	-8.40825
▁km	-8.41584
▁red	-8.41973
is	-8.42189
▁knew	-8.42294
▁park	-8.42492
▁president	-8.42544
▁main	-8.42759
▁let	-8.43099
▁february	-8.43187
f	-8.43424
▁asked	-8.43751
▁turned	-8.43832
le	-8.43998
▁power	-8.44008
▁art	-8.44337
▁per	-8.44427
▁wanted	-8.44767
▁play	-8.44788
▁although	-8.44854
▁received	-8.45103
▁different	-8.45255
▁third	-8.45272
▁served	-8.45516
▁near	-8.4564
▁himself	-8.45906
▁final	-8.45918
▁felt	-8.46238
▁century	-8.46342
▁together	-8.46436
▁voice	-8.46506
▁front	-8.46665
▁based	-8.46805
▁son	-8.46811
▁20	-8.46994
▁football	-8.47349
▁times	-8.47478
▁king	-8.47703
he	-8.47862
▁behind	-8.47872
▁died	-8.4789
▁saw	-8.47918
▁put	-8.48178
▁members	-8.48417
ton	-8.48846
ers	-8.49488
▁street	-8.49608
▁history	-8.49983
▁help	-8.50513
▁mother	-8.50608
▁award	-8.50731
▁law	-8.51181
▁having	-8.51188
▁7	-8.51214
▁point	-8.51635
▁army	-8.5176
▁late	-8.51778
8	-8.52412
we	-8.53337
▁center	-8.53868
▁division	-8.54021
▁young	-8.54043
▁ever	-8.54604
▁far	-8.54672
▁across	-8.54882
7	-8.55227
▁games	-8.55446
▁published	-8.55693
▁include	-8.55807
▁8	-8.55886
▁told	-8.55894
▁light	-8.55895
as	-8.56491
▁hands	-8.56585
▁18	-8.56745
▁country	-8.56793
▁land	-8.56909
▁find	-8.57356
▁often	-8.58112
▁london	-8.58238
▁cup	-8.58242
▁led	-8.5837
▁species	-8.58621
▁why	-8.59043
▁french	-8.59143
▁run	-8.59224
▁english	-8.59263
▁j	-8.59293
▁office	-8.59485
▁g	-8.59506
▁six	-8.59526
▁must	-8.59627
▁gave	-8.5976
▁al	-8.59771
▁tell	-8.59782
▁court	-8.59873
▁according	-8.60256
▁among	-8.60426
▁2010	-8.6044
w	-8.60484
]	-8.60728
▁original	-8.61021
▁short	-8.61174
▁full	-8.61284
▁given	-8.61372
▁form	-8.61485
▁included	-8.61485
▁million	-8.61818
▁business	-8.6196
▁days	-8.61961
▁really	-8.62214
▁enough	-8.62253
ar	-8.62737
▁14	-8.62972
▁community	-8.63079
▁live	-8.63204
▁council	-8.63394
▁player	-8.6343
9	-8.63621
▁half	-8.63664
▁opened	-8.63681
▁central	-8.63776
▁development	-8.64135
▁san	-8.64172
▁woman	-8.64247
ra	-8.64512
▁wasn	-8.6455
▁research	-8.64602
son	-8.64659
▁lost	-8.64763
▁might	-8.64832
la	-8.6488
el	-8.65555
▁become	-8.65586
▁mi	-8.65946
▁fire	-8.66119
ta	-8.66128
do	-8.66338
▁non	-8.66733
▁13	-8.67205
ma	-8.67594
▁seen	-8.67762
▁2011	-8.6782
▁close	-8.67966
▁making	-8.67969
▁career	-8.68064
de	-8.68158
▁11	-8.68326
▁german	-8.68369
ia	-8.68419
▁always	-8.6885
▁free	-8.69612
▁hard	-8.6972
▁island	-8.70241
▁hall	-8.70649
▁support	-8.70748
ne	-8.70871
▁almost	-8.70936
▁force	-8.71123
▁director	-8.71217
▁round	-8.71376
▁9	-8.71605
▁sure	-8.71887
▁2012	-8.72486
▁things	-8.72495
▁education	-8.72551
▁v	-8.72957
▁married	-8.73048
▁using	-8.73148
▁control	-8.73529
▁2008	-8.73589
▁record	-8.73598
▁inside	-8.73902
▁students	-8.74044
▁better	-8.74413
▁field	-8.74502
up	-8.74637
▁worked	-8.7466
▁continued	-8.74695
able	-8.74997
▁big	-8.75109
▁title	-8.7515
▁heart	-8.75172
▁feel	-8.75277
▁thing	-8.75355
▁human	-8.75461
▁james	-8.75512
▁returned	-8.75986
▁2009	-8.76105
▁am	-8.76251
▁give	-8.76291
te	-8.76623
▁2006	-8.7669
da	-8.76797
▁mind	-8.77046
▁ii	-8.77067
ic	-8.77225
▁role	-8.77273
▁sea	-8.77314
▁championship	-8.774
▁total	-8.77409
▁act	-8.77481
▁anything	-8.7751
▁radio	-8.77615
▁department	-8.77629
▁william	-8.77982
▁feet	-8.78367
▁association	-8.78427
what	-8.78433
▁story	-8.78447
▁case	-8.79056
▁military	-8.79218
▁royal	-8.79302
▁established	-8.79406
▁already	-8.79614
▁version	-8.79627
▁2013	-8.79628
▁various	-8.7978
land	-8.79887
▁w	-8.79905
▁period	-8.80152
▁special	-8.8032
ry	-8.80489
▁2014	-8.80501
▁2007	-8.80636
▁program	-8.80678
▁nothing	-8.81013
▁hair	-8.81263
▁win	-8.81356
▁rock	-8.81363
▁does	-8.81373
ley	-8.81453
▁region	-8.81609
▁television	-8.81661
▁living	-8.81762
▁o	-8.81797
▁[	-8.81914
▁production	-8.82029
▁working	-8.82121
▁least	-8.82365
▁past	-8.82541
▁society	-8.83259
▁written	-8.83276
▁keep	-8.83724
▁l	-8.84075
▁call	-8.84347
▁sound	-8.845
▁green	-8.84625
▁england	-8.84654
▁position	-8.84753
▁western	-8.8495
▁soon	-8.85021
▁ten	-8.85027
▁further	-8.85164
▁others	-8.85221
▁brother	-8.85237
so	-8.85506
ka	-8.85556
▁taken	-8.85658
▁dark	-8.85733
ie	-8.85881
ro	-8.85931
▁level	-8.85975
▁wife	-8.86316
▁reached	-8.86358
▁george	-8.86395
▁ground	-8.86476
▁union	-8.86504
▁social	-8.86617
▁project	-8.86802
▁joined	-8.86946
▁produced	-8.86989
▁lead	-8.87007
ch	-8.87158
▁course	-8.87159
▁political	-8.87291
▁information	-8.87456
▁done	-8.87908
▁post	-8.87989
▁created	-8.88083
▁k	-8.88244
▁important	-8.88374
▁appeared	-8.88427
▁real	-8.88438
▁david	-8.88725
▁upon	-8.88932
▁board	-8.88954
▁services	-8.89161
▁moment	-8.89287
▁site	-8.89373
▁2016	-8.89768
▁2015	-8.89819
▁battle	-8.8991
▁works	-8.89967
▁either	-8.90004
▁girl	-8.90147
▁blood	-8.90261
▁summer	-8.90677
▁police	-8.90958
▁looking	-8.91033
▁instead	-8.91143
▁god	-8.9117
ist	-8.91599
▁announced	-8.91795
▁design	-8.91836
▁blue	-8.92128
nd	-8.92145
▁arms	-8.92261
▁low	-8.92412
▁followed	-8.92569
v	-8.92579
▁couldn	-8.92595
▁30	-8.92857
▁0	-8.92918
▁france	-8.92972
▁words	-8.93398
co	-8.93508
▁ran	-8.93595
▁class	-8.93918
▁outside	-8.94017
ness	-8.94129
at	-8.94419
▁finally	-8.94618
um	-8.94677
▁considered	-8.94774
▁mouth	-8.94915
▁space	-8.95114
▁lake	-8.95133
j	-8.95224
▁toward	-8.95293
▁match	-8.95296
year	-8.95488
▁19	-8.95597
▁european	-8.9565
▁present	-8.95756
▁square	-8.95855
▁professional	-8.95984
▁someone	-8.96159
▁wrote	-8.96348
▁india	-8.96389
▁america	-8.96455
▁taking	-8.96545
▁records	-8.9667
▁northern	-8.96983
▁dr	-8.97145
▁described	-8.97156
▁h	-8.97321
▁stop	-8.97365
▁bar	-8.97439
▁trying	-8.97627
▁australia	-8.97802
▁california	-8.97947
▁heard	-8.98021
▁change	-8.98103
▁miles	-8.98125
men	-8.98168
ism	-8.9818
▁common	-8.98273
▁paul	-8.98369
os	-8.98434
▁rest	-8.98458
▁r	-8.98458
▁science	-8.98781
▁video	-8.98805
▁race	-8.98827
am	-8.98829
▁gold	-8.99165
▁leave	-8.99174
▁yet	-8.99582
▁wall	-8.99619
▁hit	-8.99711
▁25	-8.9986
▁middle	-8.99863
▁modern	-8.99962
▁museum	-9.00041
▁southern	-9.00152
▁election	-9.00199
▁able	-9.00228
▁star	-9.00335
by	-9.00412
▁move	-9.00478
▁care	-9.00488
▁pre	-9.00523
▁daughter	-9.00574
▁above	-9.00888
▁founded	-9.01205
▁today	-9.01504
▁less	-9.01539
▁return	-9.01579
▁minister	-9.0179
me	-9.01897
▁playing	-9.02204
▁track	-9.02506
ca	-9.0267
▁tried	-9.02698
▁sent	-9.02722
▁everything	-9.02796
▁im	-9.02873
▁met	-9.02892
▁start	-9.02916
▁=	-9.03048
▁recorded	-9.03193
ling	-9.03354
▁floor	-9.03499
don	-9.03853
▁turn	-9.03878
ian	-9.03953
▁event	-9.04113
▁100	-9.0424
▁brought	-9.04259
▁seven	-9.04295
but	-9.04308
▁2005	-9.04472
▁arm	-9.05004
▁2017	-9.05107
ter	-9.05262
▁language	-9.05424
den	-9.05429
▁months	-9.05507
▁points	-9.05531
▁mr	-9.056
if	-9.05679
▁robert	-9.05731
▁example	-9.05816
▁2000	-9.05904
▁kind	-9.05916
▁railway	-9.05981
▁closed	-9.06148
▁dead	-9.06493
▁result	-9.06685
▁release	-9.06804
▁thomas	-9.06901
▁michael	-9.06923
▁word	-9.06975
ge	-9.06986
▁similar	-9.07061
▁canada	-9.07077
▁fact	-9.07138
▁training	-9.07364
go	-9.0753
▁person	-9.07611
▁killed	-9.0777
▁finished	-9.0778
▁formed	-9.07926
▁popular	-9.07963
▁doing	-9.08057
▁tour	-9.08099
▁sat	-9.0819
▁addition	-9.08204
one	-9.08294
▁child	-9.08553
▁needed	-9.0897
▁21	-9.0898
▁health	-9.09078
well	-9.09114
▁deep	-9.09339
ity	-9.09474
ation	-9.09486
▁route	-9.09579
▁table	-9.09669
▁friend	-9.09766
▁centre	-9.09969
▁average	-9.10006
be	-9.10167
▁rather	-9.10174
▁lot	-9.10325
▁current	-9.10428
▁stood	-9.10437
▁decided	-9.10634
▁despite	-9.10741
se	-9.10787
▁currently	-9.10808
ion	-9.10824
▁bed	-9.10861
▁festival	-9.11097
▁money	-9.11301
▁stage	-9.11521
▁week	-9.11611
▁eventually	-9.11797
▁forces	-9.12023
▁coming	-9.1205
▁pulled	-9.12065
▁idea	-9.12284
▁boy	-9.12343
▁mean	-9.12392
▁developed	-9.12396
▁brown	-9.12461
that	-9.12704
▁elected	-9.12718
ni	-9.12797
▁seemed	-9.12826
time	-9.13064
▁throughout	-9.1308
▁debut	-9.13088
▁2004	-9.13139
▁pro	-9.13223
▁bad	-9.13238
rd	-9.13684
▁says	-9.13706
▁bay	-9.13838
▁construction	-9.13903
▁press	-9.13918
▁minutes	-9.14182
▁chief	-9.14403
▁available	-9.14447
▁added	-9.14471
▁1,	-9.14508
▁mid	-9.14551
▁signed	-9.14668
▁indian	-9.14789
▁probably	-9.14833
ur	-9.14977
▁originally	-9.1498
▁maybe	-9.15088
▁germany	-9.15095
my	-9.15163
▁songs	-9.15166
▁forward	-9.15195
12	-9.15304
▁cross	-9.15399
▁grand	-9.15535
ko	-9.15537
▁charles	-9.15537
less	-9.1563
▁areas	-9.1565
▁character	-9.15714
▁di	-9.15784
▁sir	-9.15809
ri	-9.15827
▁appointed	-9.15829
▁talk	-9.15865
▁el	-9.15879
▁private	-9.16129
▁australian	-9.16136
▁institute	-9.16335
▁remained	-9.16464
▁peter	-9.1652
▁24	-9.16838
▁possible	-9.1684
▁sun	-9.16844
▁committee	-9.16971
▁media	-9.17046
▁episode	-9.17166
▁mark	-9.17167
▁plan	-9.17243
▁sold	-9.17325
▁running	-9.17349
il	-9.17431
▁hill	-9.17602
▁study	-9.17678
▁food	-9.18084
▁usually	-9.18262
▁teams	-9.18262
▁process	-9.18293
▁friends	-9.18457
▁bridge	-9.18803
▁performance	-9.18872
▁smile	-9.18936
▁herself	-9.19033
▁morning	-9.19513
com	-9.19553
▁1990	-9.19663
▁else	-9.19726
▁events	-9.1996
▁books	-9.20033
▁bank	-9.20147
▁strong	-9.20166
▁features	-9.20179
▁list	-9.20303
ba	-9.20494
▁eight	-9.2056
▁province	-9.20592
▁sub	-9.21013
▁2003	-9.21189
▁hours	-9.21293
▁census	-9.21478
▁quickly	-9.21582
▁coach	-9.21626
▁range	-9.21641
▁whole	-9.2173
▁hospital	-9.21776
▁term	-9.21869
▁network	-9.2192
▁tv	-9.21934
▁guitar	-9.2205
▁believe	-9.22156
▁performed	-9.22184
▁lower	-9.22497
▁seat	-9.22519
▁official	-9.22546
▁hear	-9.2271
▁attack	-9.22747
▁myself	-9.22762
▁x	-9.22831
ha	-9.23033
▁ship	-9.23063
▁news	-9.23245
▁beginning	-9.23531
▁china	-9.23583
▁shot	-9.23846
▁base	-9.23867
▁type	-9.24063
▁europe	-9.24113
▁eastern	-9.24132
ja	-9.24132
▁leading	-9.24314
▁designed	-9.24326
▁players	-9.24431
▁arts	-9.24658
▁le	-9.24908
▁henry	-9.24926
▁studies	-9.24972
▁directed	-9.25117
▁involved	-9.2516
▁stone	-9.25199
▁changed	-9.25375
▁towards	-9.254
▁getting	-9.25421
▁movement	-9.25564
▁van	-9.25576
un	-9.25614
▁below	-9.25657
▁future	-9.25717
▁academy	-9.25765
▁22	-9.25853
▁kept	-9.25885
▁super	-9.2601
▁hold	-9.26166
▁action	-9.2621
▁japan	-9.26269
▁sometimes	-9.2632
ner	-9.26328
▁professor	-9.26329
▁washington	-9.26415
▁style	-9.26438
▁sister	-9.26457
10	-9.26607
▁placed	-9.26611
▁civil	-9.26701
▁magazine	-9.26784
▁jack	-9.26808
of	-9.26818
▁gone	-9.2685
▁1980	-9.26933
▁mary	-9.26947
▁longer	-9.27032
ya	-9.27223
▁hot	-9.27245
ke	-9.27267
▁dont	-9.27275
▁section	-9.27285
▁wide	-9.27342
▁du	-9.27472
17	-9.27495
▁data	-9.27631
▁schools	-9.27649
▁alone	-9.27873
▁capital	-9.27916
▁federal	-9.2795
▁sports	-9.28155
pa	-9.28254
▁model	-9.28511
▁captain	-9.28759
▁uk	-9.29115
▁female	-9.29167
▁con	-9.2926
▁completed	-9.29301
▁walked	-9.2942
▁lord	-9.29504
▁officer	-9.29511
▁featured	-9.29609
▁bill	-9.29694
▁size	-9.29895
▁earth	-9.29981
▁fight	-9.3011
▁largest	-9.30257
▁competition	-9.30602
▁cut	-9.30613
▁entire	-9.30801
she	-9.3091
▁fall	-9.3091
▁theatre	-9.30961
▁anti	-9.31014
▁lips	-9.31175
ty	-9.31349
▁tournament	-9.3138
▁thus	-9.31458
18	-9.31538
▁medical	-9.31574
▁2001	-9.31664
▁breath	-9.31862
16	-9.31906
▁rose	-9.32223
▁2002	-9.3224
▁hell	-9.32425
▁japanese	-9.32633
▁rights	-9.32705
▁management	-9.32729
▁richard	-9.3278
▁technology	-9.32852
▁passed	-9.33102
▁senior	-9.33225
▁kingdom	-9.33272
▁includes	-9.33362
▁coast	-9.33479
ce	-9.33495
for	-9.33498
▁leaving	-9.33507
▁means	-9.33554
field	-9.33563
▁2018	-9.33651
▁spent	-9.33705
▁natural	-9.33709
▁sam	-9.33811
▁mine	-9.33915
di	-9.33934
▁chinese	-9.34005
▁reported	-9.34058
▁especially	-9.34135
▁self	-9.34164
▁studio	-9.34272
▁actually	-9.34353
▁energy	-9.34363
▁fine	-9.34402
▁independent	-9.3444
ville	-9.3463
con	-9.34667
▁raised	-9.34732
▁vocals	-9.3488
▁master	-9.34924
ment	-9.34979
▁try	-9.35162
▁phone	-9.35164
▁1970	-9.35187
oh	-9.35273
▁market	-9.35465
ga	-9.3551
▁23	-9.35551
▁staff	-9.35586
▁fell	-9.35623
▁fourth	-9.35863
▁replaced	-9.35945
▁bit	-9.36022
line	-9.36203
▁parents	-9.36204
▁itself	-9.36289
▁christian	-9.36309
▁aircraft	-9.36331
▁saying	-9.36434
ine	-9.36506
▁campaign	-9.36694
▁true	-9.36723
▁valley	-9.36897
za	-9.3692
▁russian	-9.37013
▁canadian	-9.3704
▁leader	-9.37152
der	-9.37215
▁previous	-9.37238
▁allowed	-9.37259
▁awards	-9.37296
▁matter	-9.37353
▁paris	-9.37353
▁interest	-9.37403
▁saint	-9.37545
▁organization	-9.37582
▁countries	-9.37596
▁smith	-9.37675
▁degree	-9.37747
▁artist	-9.37776
▁groups	-9.37821
▁roman	-9.37836
▁silver	-9.37875
▁provided	-9.37988
▁writing	-9.38008
▁stopped	-9.381
▁awarded	-9.38207
▁kill	-9.38317
▁queen	-9.38335
▁stay	-9.38348
▁african	-9.38434
▁provide	-9.38463
▁didnt	-9.38466
▁deal	-9.38579
▁higher	-9.38617
day	-9.3864
▁italian	-9.38761
▁ft	-9.38844
▁skin	-9.38981
▁martin	-9.39088
▁happened	-9.39092
▁cold	-9.39231
bo	-9.39284
15	-9.39498
▁republic	-9.39593
▁goal	-9.39679
▁whose	-9.39681
▁via	-9.3974
et	-9.39763
▁conference	-9.39764
▁certain	-9.39826
▁earlier	-9.39926
▁command	-9.39991
ting	-9.40092
▁onto	-9.401
▁job	-9.4048
▁collection	-9.40546
▁clear	-9.40615
wood	-9.40668
▁student	-9.40687
li	-9.40691
▁novel	-9.40849
▁nearly	-9.40956
▁los	-9.4103
▁opening	-9.41055
▁reason	-9.4143
▁ma	-9.41472
▁medal	-9.41542
old	-9.41553
▁moving	-9.41662
▁attention	-9.4185
▁security	-9.41917
▁50	-9.41941
▁gun	-9.41953
rs	-9.42
ham	-9.42107
lin	-9.42199
▁cover	-9.42226
▁foreign	-9.4269
sa	-9.42745
▁industry	-9.42769
▁date	-9.4283
▁camp	-9.42916
all	-9.43003
▁older	-9.43225
▁meeting	-9.43293
▁standard	-9.43328
▁unit	-9.43357
▁trade	-9.43552
▁chest	-9.43644
▁stated	-9.43645
▁hadn	-9.43658
▁systems	-9.43777
▁fingers	-9.43802
▁guy	-9.43904
can	-9.43914
▁key	-9.44054
▁1999	-9.44084
▁library	-9.44127
▁feeling	-9.44341
▁families	-9.44426
q	-9.44445
ler	-9.44468
▁husband	-9.44498
▁regional	-9.44669
▁meet	-9.44698
▁primary	-9.44761
▁pain	-9.44773
▁girls	-9.44842
▁sense	-9.45095
▁chapter	-9.45149
▁stand	-9.45219
▁26	-9.45234
mer	-9.45244
sen	-9.45355
▁wouldn	-9.45355
▁everyone	-9.4536
▁source	-9.45455
▁governor	-9.45525
▁lived	-9.45602
not	-9.45687
▁africa	-9.45785
▁ended	-9.45826
▁spanish	-9.45839
▁28	-9.45852
▁native	-9.45889
▁anyone	-9.45932
▁introduced	-9.46046
▁heavy	-9.46098
▁complete	-9.46306
▁success	-9.4634
based	-9.46511
▁airport	-9.46726
ad	-9.46729
ive	-9.46809
▁shows	-9.46836
▁mountain	-9.46872
ul	-9.46903
▁standing	-9.46983
▁test	-9.46994
▁regular	-9.4706
ous	-9.47335
▁forced	-9.47362
mo	-9.4739
led	-9.47445
▁port	-9.4747
▁prince	-9.47679
▁entered	-9.48016
▁27	-9.48063
off	-9.48101
▁successful	-9.48176
▁question	-9.4819
▁read	-9.48227
age	-9.48291
▁foundation	-9.48309
▁contract	-9.48421
11	-9.486
ah	-9.4889
▁movie	-9.489
▁twenty	-9.48915
▁historic	-9.4894
▁operations	-9.48988
▁commission	-9.49058
▁prior	-9.49072
▁author	-9.4913
▁1998	-9.4924
ten	-9.49317
▁limited	-9.4932
▁channel	-9.49481
▁personal	-9.49485
out	-9.49537
▁plant	-9.4959
▁edition	-9.49613
20	-9.49617
▁mc	-9.49634
▁cast	-9.49642
ally	-9.49666
▁die	-9.49726
▁1960	-9.49798
▁dance	-9.49802
▁report	-9.49962
▁da	-9.4998
▁ka	-9.5024
ized	-9.50305
▁forest	-9.50322
▁couple	-9.50529
let	-9.50737
▁holding	-9.50777
▁texas	-9.50813
▁castle	-9.50839
id	-9.50841
▁parts	-9.50919
▁weeks	-9.5092
▁previously	-9.51007
▁scored	-9.51169
▁practice	-9.51229
au	-9.51269
▁shook	-9.51443
▁active	-9.51641
▁ask	-9.51694
▁glass	-9.51781
▁additional	-9.51919
▁economic	-9.52034
▁se	-9.52039
▁property	-9.52345
les	-9.52385
▁eye	-9.52525
▁approximately	-9.5254
▁lee	-9.52553
▁individual	-9.52657
▁chicago	-9.5271
▁traditional	-9.5275
▁speed	-9.52755
▁covered	-9.52947
▁makes	-9.52968
▁culture	-9.53101
▁themselves	-9.53216
car	-9.53235
▁whom	-9.53265
▁understand	-9.5336
▁wood	-9.53395
▁1996	-9.53436
▁pay	-9.53568
ate	-9.53584
▁buildings	-9.53603
▁immediately	-9.53618
▁hope	-9.5364
▁singer	-9.53654
ak	-9.53824
▁male	-9.53832
▁meant	-9.54
▁access	-9.54002
▁manager	-9.54035
▁caught	-9.5418
▁takes	-9.54242
va	-9.54419
▁secretary	-9.54468
now	-9.54553
ti	-9.54589
▁wrong	-9.54642
▁required	-9.54646
▁nine	-9.54755
▁ice	-9.54765
▁navy	-9.54789
▁attended	-9.54794
▁shoulder	-9.54892
▁ex	-9.5495
▁paper	-9.54966
▁units	-9.55087
▁fa	-9.55131
▁direction	-9.55163
▁decision	-9.55231
▁lady	-9.55396
like	-9.55396
▁chair	-9.55419
▁catholic	-9.55467
▁engine	-9.55515
▁edge	-9.55532
▁mission	-9.5556
**	-9.55634
with	-9.5566
▁structure	-9.55675
▁1997	-9.55974
▁parliament	-9.55979
▁winning	-9.5598
lo	-9.56041
side	-9.56218
▁40	-9.56321
▁view	-9.56321
14	-9.56341
▁defeated	-9.56367
▁producer	-9.56394
▁starting	-9.56472
▁mar	-9.56588
▁step	-9.56705
▁neck	-9.56713
ford	-9.56738
ted	-9.56806
▁computer	-9.56845
▁relationship	-9.57029
est	-9.57072
▁stadium	-9.57089
per	-9.57104
19	-9.57144
▁offered	-9.57294
mi	-9.57373
ey	-9.57404
▁doesn	-9.57428
▁giving	-9.57438
▁commercial	-9.57473
▁thinking	-9.57534
▁bass	-9.57736
▁break	-9.57767
way	-9.57852
▁nature	-9.57861
▁evidence	-9.5796
▁championships	-9.5799
▁slowly	-9.58002
▁problem	-9.58047
▁studied	-9.58154
▁quite	-9.58157
▁ready	-9.5817
▁executive	-9.58268
▁operation	-9.5833
▁hotel	-9.58372
▁watch	-9.5847
▁helped	-9.58481
▁musical	-9.58489
▁ha	-9.5852
▁highway	-9.58699
▁dis	-9.58705
▁runs	-9.58748
▁writer	-9.58826
▁window	-9.5891
▁ago	-9.58986
▁figure	-9.59049
▁walk	-9.59077
▁owned	-9.59105
▁appearance	-9.59391
▁generally	-9.59404
▁reach	-9.59434
▁managed	-9.59445
▁whether	-9.5949
fa	-9.59496
▁location	-9.59573
▁assembly	-9.59577
▁length	-9.59589
▁pass	-9.59601
▁temple	-9.59619
▁annual	-9.59666
▁inter	-9.59696
▁municipality	-9.59721
▁assistant	-9.59747
▁1992	-9.59749
▁metal	-9.59805
▁1995	-9.59906
▁policy	-9.59917
▁review	-9.59953
▁isbn	-9.60025
▁places	-9.60149
▁surface	-9.60194
▁films	-9.60195
▁material	-9.60205
▁drive	-9.60293
▁double	-9.60309
▁smiled	-9.60311
▁experience	-9.60372
▁caused	-9.60375
▁particular	-9.60394
▁bring	-9.60503
▁hurt	-9.60533
▁miss	-9.60576
▁complex	-9.60585
em	-9.60656
▁chance	-9.60693
▁significant	-9.60724
▁del	-9.60843
▁prize	-9.60893
▁upper	-9.6095
are	-9.61012
▁listed	-9.61031
▁wind	-9.61063
▁fast	-9.61087
▁issue	-9.61153
ard	-9.61205
▁29	-9.61254
▁cost	-9.61304
▁legal	-9.6141
▁remember	-9.61445
▁ben	-9.61478
ki	-9.61546
▁carried	-9.6156
▁soviet	-9.61609
ir	-9.6165
▁completely	-9.61699
▁noted	-9.61751
▁loss	-9.61774
▁trust	-9.61787
▁train	-9.61926
▁mexico	-9.62026
▁1994	-9.62084
▁corner	-9.62129
▁companies	-9.62308
▁plays	-9.6232
▁2010,	-9.62356
▁becoming	-9.62515
ny	-9.62556
▁initially	-9.62564
▁31	-9.62606
▁dropped	-9.62689
▁joseph	-9.62735
▁tree	-9.62762
▁artists	-9.62847
13	-9.62872
how	-9.62951
▁ireland	-9.63012
▁youth	-9.63095
▁goals	-9.63219
▁numerous	-9.63231
▁issues	-9.63255
▁subject	-9.63442
▁lives	-9.63448
▁engineering	-9.63563
▁financial	-9.63631
▁highest	-9.6364
▁mostly	-9.63649
▁frank	-9.63659
▁justice	-9.63677
▁angeles	-9.63715
▁winter	-9.63717
▁lines	-9.6383
▁famous	-9.64125
▁pa	-9.64149
▁empire	-9.64282
▁nodded	-9.64462
this	-9.64503
ful	-9.64514
▁2011,	-9.6458
▁arrived	-9.64604
&	-9.64772
▁believed	-9.64838
▁champion	-9.64934
▁mac	-9.65073
▁spring	-9.65087
▁actor	-9.65093
▁victory	-9.65357
▁recording	-9.65407
▁zealand	-9.65594
▁baby	-9.6564
▁bishop	-9.65973
▁feature	-9.66028
king	-9.66072
▁talking	-9.66102
▁distance	-9.6612
▁ko	-9.66134
▁oil	-9.66195
▁1991	-9.6625
▁income	-9.66483
▁contains	-9.66497
▁sex	-9.66507
▁effect	-9.66528
▁italy	-9.66836
▁ball	-9.6685
▁ancient	-9.67232
chi	-9.67246
ish	-9.67268
ies	-9.67362
▁related	-9.67387
▁associated	-9.67397
▁straight	-9.67448
▁create	-9.67473
▁launched	-9.6755
▁retired	-9.67563
▁administration	-9.67572
▁2,	-9.67667
▁suddenly	-9.67884
▁township	-9.6789
▁bo	-9.67933
wa	-9.67975
▁1993	-9.67978
▁stars	-9.67998
▁guard	-9.68
▁lu	-9.68021
▁except	-9.68025
▁virginia	-9.68084
mar	-9.68153
ji	-9.68219
▁month	-9.6822
▁score	-9.68309
▁mass	-9.68348
▁mm	-9.68594
▁prime	-9.68605
▁represented	-9.68655
▁answer	-9.68679
▁comes	-9.68714
▁beach	-9.6881
▁boys	-9.68817
▁response	-9.6888
▁2012,	-9.69043
ana	-9.69161
▁junior	-9.6918
▁religious	-9.6921
▁beautiful	-9.69225
▁tracks	-9.6926
▁watched	-9.69283
sh	-9.69343
jo	-9.69517
▁*	-9.69555
po	-9.69601
▁theory	-9.69615
▁edward	-9.69662
▁mom	-9.69688
▁grew	-9.69747
▁yes	-9.69826
▁increased	-9.69844
▁greek	-9.69846
▁2013,	-9.69946
▁commander	-9.70011
▁activities	-9.70068
▁box	-9.70069
▁stories	-9.70093
cha	-9.70129
▁basketball	-9.70149
▁particularly	-9.70246
▁2009,	-9.70246
▁allow	-9.70259
▁congress	-9.70281
▁fellow	-9.70292
▁ca	-9.70342
▁simply	-9.70407
im	-9.70512
▁sky	-9.70555
▁larger	-9.7057
▁terms	-9.70633
pe	-9.70663
▁color	-9.70682
su	-9.70883
▁cell	-9.70941
▁historical	-9.71008
ated	-9.71026
▁brothers	-9.71039
▁hour	-9.71092
▁waiting	-9.7124
ina	-9.71264
ger	-9.71332
▁pop	-9.71344
▁sign	-9.71349
▁overall	-9.71352
▁remains	-9.71474
▁cause	-9.71485
▁journal	-9.71487
▁winner	-9.7162
house	-9.71629
▁bus	-9.71708
▁rate	-9.7177
▁dan	-9.71778
▁branch	-9.71792
▁doctor	-9.71861
▁regiment	-9.71882
▁minor	-9.71922
▁flight	-9.71939
▁scene	-9.71989
▁gas	-9.7206
▁changes	-9.7215
her	-9.72156
▁2014,	-9.72201
▁poor	-9.72226
▁crew	-9.72318
▁majority	-9.7234
▁secret	-9.72392
▁happy	-9.72402
▁beyond	-9.72414
▁failed	-9.72503
▁directly	-9.72542
▁selected	-9.72543
▁okay	-9.72801
ex	-9.72873
fi	-9.7299
▁louis	-9.72995
tv	-9.73013
▁tower	-9.73077
▁legs	-9.73088
ang	-9.73148
▁mike	-9.7319
yes	-9.73193
▁1950	-9.73216
▁problems	-9.73231
▁matches	-9.73259
▁store	-9.7355
▁fear	-9.73601
▁likely	-9.73611
▁shown	-9.73616
▁marriage	-9.73845
▁touch	-9.74093
▁subsequently	-9.74236
▁separate	-9.74285
▁programs	-9.74299
▁expected	-9.74342
▁peace	-9.74472
▁horse	-9.74617
▁2015,	-9.74655
berg	-9.74755
▁bi	-9.74787
▁cultural	-9.74835
ze	-9.74852
▁attempt	-9.74866
▁results	-9.74867
▁heat	-9.7496
ac	-9.75025
▁transport	-9.7513
▁follow	-9.75132
▁2008,	-9.75254
▁sleep	-9.75326
head	-9.75389
▁direct	-9.75474
▁cd	-9.75477
▁des	-9.75484
▁variety	-9.755
▁letter	-9.75502
▁foot	-9.75569
▁florida	-9.75594
▁iron	-9.75668
▁1989	-9.75683
▁plans	-9.75688
▁nearby	-9.75875
vi	-9.75898
▁wing	-9.75912
▁chairman	-9.75966
▁rural	-9.76103
▁gaze	-9.76124
▁wait	-9.76251
▁rules	-9.76304
30	-9.76363
▁weight	-9.76363
▁recent	-9.76364
▁ring	-9.76373
▁characters	-9.76458
kin	-9.76471
▁fair	-9.76473
▁irish	-9.76519
▁truth	-9.76624
▁agreed	-9.76865
▁pretty	-9.77055
▁travel	-9.77253
▁perhaps	-9.77352
▁na	-9.77418
▁focus	-9.77456
▁1988	-9.77604
▁democratic	-9.77619
▁soldiers	-9.77646
▁appears	-9.7765
▁ni	-9.77799
▁status	-9.77805
▁operated	-9.77821
▁genus	-9.78123
▁islands	-9.78126
tic	-9.7821
▁dad	-9.78264
▁closer	-9.7828
▁spread	-9.7828
▁vi	-9.78296
▁wales	-9.7839
▁lack	-9.78453
▁therefore	-9.78461
▁claimed	-9.7847
▁chart	-9.78481
▁drama	-9.78523
▁code	-9.78634
see	-9.7866
▁serving	-9.7872
▁beat	-9.78798
▁creek	-9.78864
▁joe	-9.78871
▁expression	-9.78878
lan	-9.78918
▁sitting	-9.78955
▁pennsylvania	-9.79011
ho	-9.79097
▁wild	-9.79185
▁pan	-9.79218
▁academic	-9.79333
25	-9.7934
▁2016,	-9.79382
▁meaning	-9.79485
▁jones	-9.79687
▁lay	-9.7984
▁continue	-9.79924
▁names	-9.79975
▁parish	-9.79995
▁pacific	-9.79996
ru	-9.8005
▁vice	-9.80096
hi	-9.80155
ol	-9.80301
▁scott	-9.80331
▁physical	-9.80355
▁normal	-9.80524
▁supported	-9.80567
▁rule	-9.80568
ization	-9.80721
ant	-9.80763
▁presented	-9.80863
▁kiss	-9.8088
▁chi	-9.80926
▁safe	-9.8093
▁editor	-9.81079
▁stared	-9.81112
▁choice	-9.81218
▁ill	-9.81266
▁increase	-9.81365
▁mayor	-9.81396
han	-9.81483
▁broke	-9.81486
▁2007,	-9.8151
▁flat	-9.8152
▁baseball	-9.81592
▁remaining	-9.81628
▁slightly	-9.81668
▁discovered	-9.81673
▁fighting	-9.81825
bar	-9.81892
dy	-9.81949
▁goes	-9.81968
▁honor	-9.82014
▁text	-9.82068
▁piece	-9.82109
▁soft	-9.82117
ary	-9.82156
▁situation	-9.82174
▁pressure	-9.82213
▁leg	-9.82235
▁troops	-9.82245
▁border	-9.82363
gen	-9.82405
▁responsible	-9.82485
▁join	-9.8253
▁metres	-9.82558
▁iii	-9.82599
▁dream	-9.82717
▁composed	-9.82781
▁referred	-9.82843
▁cases	-9.82966
▁golden	-9.83194
▁mo	-9.83388
▁hundred	-9.83459
▁sorry	-9.83478
▁reading	-9.83523
▁opera	-9.83756
▁judge	-9.83769
▁looks	-9.8381
ating	-9.83838
▁spain	-9.83902
▁defense	-9.8399
▁individuals	-9.84014
▁serve	-9.84048
war	-9.84051
▁multiple	-9.84062
there	-9.84116
▁digital	-9.84207
▁multi	-9.84277
▁exactly	-9.84344
▁share	-9.8435
ci	-9.84371
▁appear	-9.84403
▁greater	-9.84407
▁build	-9.84504
▁realized	-9.84529
mann	-9.84557
class	-9.84612
▁label	-9.84628
▁fifth	-9.84703
▁1986	-9.84755
▁russia	-9.84775
▁specific	-9.84788
▁firm	-9.84925
▁ordered	-9.84973
▁charge	-9.84979
▁jean	-9.85036
▁showed	-9.85044
▁bob	-9.8513
▁bag	-9.85201
ster	-9.85201
▁memory	-9.85219
▁trees	-9.85228
town	-9.8529
▁influence	-9.85323
▁emperor	-9.85349
▁1987	-9.8537
▁knowledge	-9.85382
ps	-9.85421
▁cities	-9.85551
▁block	-9.85769
▁semi	-9.85777
▁value	-9.85789
who	-9.85856
▁piano	-9.85878
▁maria	-9.85898
▁provides	-9.85921
▁corps	-9.85946
▁sa	-9.86026
▁1984	-9.86035
▁earned	-9.86153
▁latter	-9.86174
5%	-9.86259
▁prison	-9.86318
▁simple	-9.86326
▁windows	-9.86334
▁farm	-9.86336
▁rain	-9.86364
tra	-9.86406
▁machine	-9.86437
21	-9.8644
▁squadron	-9.86454
▁filled	-9.86478
ier	-9.86534
▁note	-9.86537
▁duke	-9.86558
▁houses	-9.86583
▁chris	-9.86599
▁kitchen	-9.86636
▁exchange	-9.86668
▁steel	-9.86684
▁dog	-9.86736
▁watching	-9.86819
▁daily	-9.86821
▁territory	-9.86846
▁difficult	-9.86942
▁en	-9.87
back	-9.87035
▁authority	-9.87075
▁speak	-9.87129
▁image	-9.87163
▁oh	-9.87169
io	-9.87171
▁brain	-9.87263
▁sand	-9.8727
▁lies	-9.87309
▁cannot	-9.87332
▁fish	-9.87386
je	-9.87441
▁presence	-9.87442
▁kilometres	-9.87458
▁throat	-9.87608
▁stepped	-9.87643
▁removed	-9.87696
▁daniel	-9.8775
▁britain	-9.87856
▁spoke	-9.88019
▁2017,	-9.88039
▁3,	-9.88075
▁urban	-9.88192
▁1985	-9.88259
ut	-9.88345
▁politician	-9.88346
▁extended	-9.88373
▁products	-9.88627
▁garden	-9.88792
▁newspaper	-9.88796
▁bell	-9.8882
▁recently	-9.88847
▁function	-9.88931
▁growing	-9.88979
▁broadcast	-9.89
port	-9.89058
▁offer	-9.89091
more	-9.89104
24	-9.89114
▁forms	-9.89128
▁nations	-9.89132
▁spot	-9.89138
▁jr	-9.89149
23	-9.89163
▁article	-9.89273
▁draw	-9.89309
▁workers	-9.89326
que	-9.89353
▁amount	-9.89387
▁pushed	-9.89402
▁cat	-9.89486
▁alexander	-9.895
▁easy	-9.89552
▁mainly	-9.89729
▁smaller	-9.8988
▁path	-9.90002
▁jewish	-9.90089
▁host	-9.90089
▁carolina	-9.90208
▁par	-9.90234
▁vote	-9.90361
▁yellow	-9.90387
▁acquired	-9.904
▁walls	-9.90582
▁agreement	-9.9061
▁broken	-9.90649
▁ministry	-9.90652
▁boston	-9.90668
ov	-9.90705
▁uses	-9.9078
▁estate	-9.90782
▁risk	-9.90835
▁gray	-9.90854
american	-9.90924
00	-9.91104
▁promoted	-9.91134
▁ships	-9.91145
▁planned	-9.91159
▁pick	-9.91239
▁mile	-9.91304
▁minute	-9.91404
▁conditions	-9.91426
▁poland	-9.91556
▁officers	-9.91577
▁rich	-9.91624
▁consists	-9.91629
▁grade	-9.91717
▁mrs	-9.91803
▁solo	-9.91835
▁era	-9.91936
▁grant	-9.91947
▁max	-9.91966
▁johnson	-9.91976
pur	-9.91994
▁z	-9.92086
▁males	-9.92089
▁avenue	-9.92102
▁serious	-9.92223
▁card	-9.92245
▁protection	-9.92282
▁sort	-9.92396
▁warm	-9.92474
▁storm	-9.92491
▁marine	-9.92502
▁global	-9.92505
gar	-9.92513
▁sight	-9.92521
▁elements	-9.92544
▁sit	-9.92655
▁tom	-9.927
▁latin	-9.9271
▁soul	-9.92813
▁stock	-9.92822
▁campus	-9.93146
▁notable	-9.93347
▁mad	-9.93403
▁65	-9.93449
ron	-9.9346
▁elizabeth	-9.93472
they	-9.93588
▁seeing	-9.93614
▁save	-9.93632
▁olympics	-9.9366
▁intended	-9.93714
▁1983	-9.93715
▁60	-9.93815
▁leaves	-9.93832
▁2006,	-9.93847
▁francisco	-9.93923
▁online	-9.93932
▁twice	-9.93945
▁evening	-9.94073
ring	-9.94098
▁percent	-9.94228
▁sweet	-9.94256
▁li	-9.94326
▁walking	-9.94346
red	-9.94362
▁constructed	-9.94373
▁proposed	-9.94386
▁electric	-9.944
▁whatever	-9.94495
▁shortly	-9.94524
▁turning	-9.94547
ber	-9.94585
▁corporation	-9.94591
▁initial	-9.94601
▁counter	-9.94618
▁finish	-9.94778
▁perfect	-9.9486
▁safety	-9.94878
▁method	-9.9488
▁von	-9.94933
mon	-9.95128
▁lieutenant	-9.95149
▁beside	-9.95186
▁picked	-9.95217
▁drew	-9.9526
▁numbers	-9.95269
▁dutch	-9.95277
▁affairs	-9.95297
ite	-9.95375
ella	-9.9541
▁moon	-9.95412
▁search	-9.95438
▁housing	-9.95447
▁recognized	-9.95464
▁basic	-9.95596
▁reserve	-9.95628
▁nor	-9.95691
▁victoria	-9.95699
▁bottom	-9.9571
▁females	-9.95714
▁purpose	-9.95741
▁split	-9.95745
▁et	-9.95762
▁jersey	-9.95804
▁ban	-9.95804
▁1982	-9.95866
▁cars	-9.959
▁stations	-9.95928
▁visit	-9.9598
which	-9.96038
▁approach	-9.96101
ju	-9.96107
▁defeat	-9.96208
▁ocean	-9.96221
▁williams	-9.96287
▁pair	-9.96298
▁competed	-9.96317
▁memorial	-9.96359
▁mount	-9.96472
▁effort	-9.96486
▁picture	-9.96499
▁contemporary	-9.96508
tor	-9.96552
▁magic	-9.96558
▁alex	-9.96571
▁orchestra	-9.96577
▁highly	-9.96578
▁graduated	-9.9669
pi	-9.96767
min	-9.96921
bi	-9.96935
▁price	-9.9695
▁industrial	-9.96963
▁replied	-9.96982
▁ability	-9.9715
▁remain	-9.97152
▁ya	-9.97269
▁administrative	-9.97273
▁strength	-9.97296
▁jim	-9.97317
▁nation	-9.97332
ns	-9.97361
▁ahead	-9.97377
▁infantry	-9.97418
▁residents	-9.97482
▁account	-9.97485
▁powerful	-9.97631
▁trial	-9.97635
▁racing	-9.97656
▁acting	-9.97689
▁equipment	-9.97696
▁actress	-9.97733
▁destroyed	-9.9776
▁hockey	-9.97771
uk	-9.97831
ney	-9.97835
ium	-9.97849
▁1979	-9.97869
▁ho	-9.97875
▁quality	-9.97897
▁glanced	-9.97964
▁paid	-9.97986
▁4,	-9.98013
▁fort	-9.9802
ran	-9.9806
▁protect	-9.98108
▁teacher	-9.98167
▁mixed	-9.98194
▁loved	-9.98206
▁settled	-9.9845
▁pull	-9.9849
▁treatment	-9.98491
▁contact	-9.98504
▁revealed	-9.9856
▁lo	-9.98622
▁seems	-9.98649
▁scotland	-9.98674
▁birth	-9.98763
▁brand	-9.98772
▁nice	-9.98821
▁mentioned	-9.98831
▁issued	-9.98873
▁produce	-9.98919
▁simon	-9.98921
▁1930	-9.98995
▁levels	-9.99005
▁accepted	-9.9922
▁shut	-9.99227
▁households	-9.99236
▁escape	-9.99327
▁positive	-9.99338
▁potential	-9.9935
▁der	-9.99546
▁snow	-9.99681
▁tax	-9.99716
▁younger	-9.99773
▁traffic	-9.99788
▁steve	-9.99807
▁1981	-9.99968
▁extra	-9.99982
▁quick	-10.0006
▁growth	-10.0012
▁literature	-10.0018
gi	-10.002
▁republican	-10.0024
▁za	-10.0031
▁crime	-10.0032
▁mill	-10.0033
▁basis	-10.0041
▁rail	-10.0043
▁fleet	-10.0049
hu	-10.0051
▁register	-10.0051
▁murder	-10.0075
▁median	-10.0083
▁gallery	-10.0084
▁please	-10.0087
▁appearances	-10.0094
▁1972	-10.0095
▁vol	-10.0096
▁tonight	-10.0099
▁boat	-10.0104
▁buried	-10.0107
▁concert	-10.0111
▁advanced	-10.0114
why	-10.0115
▁primarily	-10.0121
▁para	-10.0155
▁1978	-10.016
▁seem	-10.0168
▁impact	-10.0169
▁jan	-10.0176
▁tall	-10.0179
west	-10.0181
star	-10.0183
▁joint	-10.0183
▁agent	-10.0185
ola	-10.0189
har	-10.0198
▁ke	-10.0203
▁website	-10.0203
▁scientific	-10.0206
▁dry	-10.0213
▁needs	-10.0222
▁rear	-10.0224
▁slow	-10.0229
▁secondary	-10.0237
▁sydney	-10.0238
▁principal	-10.0239
▁senate	-10.0239
▁losing	-10.024
▁asian	-10.024
▁polish	-10.0251
len	-10.0251
▁israel	-10.0251
▁tri	-10.0258
22	-10.0262
▁transferred	-10.0268
▁tu	-10.0268
50	-10.027
ent	-10.0272
▁effects	-10.0274
▁supposed	-10.0277
ku	-10.0284
▁1940	-10.0292
▁berlin	-10.0298
ab	-10.0301
▁leaned	-10.0301
▁naval	-10.0303
▁whispered	-10.031
▁capacity	-10.0312
▁entertainment	-10.0313
▁jackson	-10.0318
ver	-10.0319
▁trip	-10.0324
▁software	-10.0325
▁environment	-10.033
▁damage	-10.0331
▁1974	-10.0333
▁volume	-10.034
▁elections	-10.0343
▁races	-10.0343
▁bbc	-10.035
▁projects	-10.0352
▁matt	-10.0352
▁candidate	-10.0358
▁flying	-10.0362
▁thick	-10.0363
▁entrance	-10.0371
▁officially	-10.0381
▁guess	-10.0382
▁brigade	-10.0383
du	-10.0388
▁screen	-10.0393
▁1976	-10.0394
▁freedom	-10.0397
▁200	-10.0406
net	-10.0414
▁huge	-10.0415
▁ear	-10.0423
▁content	-10.0428
▁seasons	-10.0428
▁medicine	-10.0434
▁planning	-10.0437
▁engineer	-10.0456
▁settlement	-10.0457
▁fully	-10.046
▁grabbed	-10.046
1%	-10.0468
▁featuring	-10.0476
▁nick	-10.0489
gan	-10.0491
▁unable	-10.0502
▁agency	-10.0508
bu	-10.0514
▁questions	-10.0527
▁suggested	-10.0527
▁begin	-10.0539
▁tears	-10.0544
▁divided	-10.0546
▁easily	-10.055
▁gives	-10.0552
▁po	-10.0555
ek	-10.0556
▁teeth	-10.0558
▁railroad	-10.0562
▁prominent	-10.0563
▁activity	-10.0567
▁taught	-10.0568
▁dedicated	-10.0568
▁champions	-10.0568
▁rugby	-10.057
▁finger	-10.0586
▁coffee	-10.0586
▁fought	-10.0589
ius	-10.0592
▁wave	-10.0594
▁columbia	-10.0601
▁none	-10.0603
▁silence	-10.0606
law	-10.0607
▁roof	-10.0607
ung	-10.0616
▁product	-10.0618
▁ray	-10.0618
▁andrew	-10.0622
lu	-10.0624
▁necessary	-10.0627
▁headquarters	-10.063
▁drums	-10.0639
▁1977	-10.0642
▁steps	-10.0643
▁animal	-10.0649
▁happen	-10.0651
▁fox	-10.0658
▁mountains	-10.0663
▁alongside	-10.0671
▁1968	-10.0672
▁killing	-10.0675
▁cm	-10.0678
▁singles	-10.0678
▁te	-10.0689
▁ohio	-10.0694
▁asia	-10.0695
▁background	-10.0695
▁efforts	-10.0698
sky	-10.0701
▁palace	-10.0704
▁leadership	-10.0706
▁headed	-10.0707
▁quiet	-10.0711
▁pen	-10.0714
▁1945	-10.0715
▁challenge	-10.0716
6%	-10.0726
▁adam	-10.0728
fer	-10.0728
yo	-10.073
26	-10.0732
▁owner	-10.0732
▁captured	-10.074
▁rome	-10.0752
ski	-10.0765
▁fun	-10.0775
▁follows	-10.0777
ance	-10.0782
▁partner	-10.0784
ship	-10.0785
▁1975	-10.0786
▁concept	-10.0789
▁interview	-10.0791
▁motion	-10.0792
kar	-10.0792
▁empty	-10.0798
▁driver	-10.08
stone	-10.0801
▁guest	-10.0806
▁compared	-10.0807
ker	-10.0809
+	-10.0811
▁har	-10.0818
▁purchased	-10.0822
▁renamed	-10.0824
▁notes	-10.0824
▁applied	-10.0825
▁enemy	-10.0835
▁occurred	-10.0839
▁cha	-10.0841
▁1973	-10.0848
▁sport	-10.0849
▁shoulders	-10.0851
▁typically	-10.0853
ev	-10.0856
▁jazz	-10.0863
rin	-10.0864
▁formation	-10.0865
▁technical	-10.0868
▁bought	-10.0877
▁georgia	-10.0886
▁facilities	-10.0892
end	-10.0894
▁platform	-10.0897
▁refused	-10.0898
▁deputy	-10.0903
▁operating	-10.0903
▁liberal	-10.0903
▁1920	-10.0903
▁revolution	-10.0904
▁comedy	-10.0905
ff	-10.0906
▁combined	-10.0912
▁mis	-10.093
tan	-10.093
▁zone	-10.0934
▁battalion	-10.0936
▁wearing	-10.0941
▁assigned	-10.0942
▁count	-10.0942
▁painting	-10.0946
▁surrounding	-10.0947
▁participated	-10.0954
▁draft	-10.0961
tu	-10.0964
▁premier	-10.0967
▁tar	-10.0976
▁crowd	-10.0993
▁learning	-10.0999
▁page	-10.1
▁conducted	-10.1008
▁2005,	-10.1008
▁alive	-10.1009
▁declared	-10.1013
*	-10.1014
▁learn	-10.1014
▁returning	-10.102
▁offers	-10.1028
▁45	-10.1028
▁laid	-10.1036
▁pointed	-10.1042
▁santa	-10.1042
▁pieces	-10.1048
▁kong	-10.1048
▁lifted	-10.105
▁ver	-10.1056
▁analysis	-10.1063
▁holy	-10.1078
▁telling	-10.1096
▁1971	-10.1096
oc	-10.1098
zo	-10.1107
▁prevent	-10.1125
▁creation	-10.1131
▁michigan	-10.1137
then	-10.1143
▁taylor	-10.1146
▁knowing	-10.116
▁critical	-10.1162
▁5,	-10.1164
▁scottish	-10.1165
▁supreme	-10.117
vin	-10.117
▁32	-10.1171
▁tony	-10.1172
▁fan	-10.118
▁disease	-10.1187
▁letters	-10.119
tur	-10.1192
▁organized	-10.1194
▁chosen	-10.1197
45	-10.1204
▁dam	-10.1206
▁animals	-10.1214
▁distribution	-10.1215
▁commonly	-10.1216
▁widely	-10.1217
▁stephen	-10.1218
▁adopted	-10.1227
▁gained	-10.123
▁rise	-10.1242
▁laughed	-10.1257
▁drug	-10.127
▁isn	-10.1276
▁1969	-10.1278
▁hong	-10.1278
▁combat	-10.1279
▁wish	-10.1283
▁suffered	-10.1289
▁su	-10.1294
▁shape	-10.1294
▁teaching	-10.1294
ised	-10.1295
dar	-10.1298
▁crown	-10.1299
▁leaders	-10.1304
09	-10.1304
▁shop	-10.1307
▁theater	-10.131
ria	-10.1312
over	-10.1314
▁beneath	-10.1317
▁types	-10.1318
ap	-10.1323
zi	-10.1323
mp	-10.1338
▁calling	-10.1341
▁languages	-10.1343
▁bowl	-10.1344
[	-10.1347
bra	-10.1368
3%	-10.1378
▁tongue	-10.1383
▁unknown	-10.1384
▁usa	-10.1387
▁falls	-10.1393
af	-10.1396
▁resources	-10.1407
27	-10.1419
▁yards	-10.1423
che	-10.1423
▁sides	-10.143
▁wilson	-10.1431
▁trouble	-10.1434
also	-10.1435
▁tim	-10.1437
▁parties	-10.1439
▁bodies	-10.144
▁1967	-10.1448
▁strange	-10.145
▁ep	-10.1452
▁weather	-10.1455
▁christ	-10.1455
▁seconds	-10.1462
▁labor	-10.1463
▁communities	-10.1472
▁iran	-10.1478
▁motor	-10.1481
▁connected	-10.1483
▁receive	-10.1485
▁serves	-10.1489
▁dress	-10.149
▁clothes	-10.1491
▁shared	-10.1501
▁q	-10.1504
op	-10.1505
▁format	-10.1505
▁footballer	-10.1509
▁wolf	-10.151
▁sales	-10.1512
35	-10.1515
▁yu	-10.152
ck	-10.1521
40	-10.1526
2%	-10.1527
▁focused	-10.153
▁cap	-10.1534
▁relief	-10.1538
▁architecture	-10.154
▁sunday	-10.154
▁tells	-10.1541
▁drink	-10.1544
▁imperial	-10.1544
▁episodes	-10.1547
cho	-10.1556
▁arthur	-10.1566
era	-10.1567
▁sons	-10.157
▁transfer	-10.1571
▁tight	-10.1598
▁unique	-10.16
▁internet	-10.1603
9%	-10.1604
▁continues	-10.1605
▁sciences	-10.1606
▁surprise	-10.1611
vo	-10.1612
▁earl	-10.1613
▁kids	-10.1621
ise	-10.1622
▁apart	-10.1626
▁lap	-10.1628
▁check	-10.1638
▁claim	-10.1638
▁becomes	-10.1638
▁politics	-10.1642
▁3:	-10.1651
om	-10.1651
▁cancer	-10.1653
▁christmas	-10.1656
▁ken	-10.1657
▁jo	-10.1662
▁sharp	-10.1663
air	-10.1664
▁household	-10.1668
▁fc	-10.1676
▁plants	-10.1681
▁facility	-10.1681
▁eric	-10.1685
▁pilot	-10.1687
▁relations	-10.169
▁quarter	-10.1692
ini	-10.1695
▁representative	-10.1696
7%	-10.1701
▁weapons	-10.1702
ou	-10.1708
▁stomach	-10.171
▁trail	-10.1711
▁avoid	-10.1713
▁spirit	-10.1714
▁send	-10.1727
▁begins	-10.1729
▁sources	-10.173
▁audience	-10.1734
▁vehicle	-10.1737
from	-10.1737
▁wonder	-10.1744
▁wine	-10.1746
▁labour	-10.1748
▁reaching	-10.176
▁carry	-10.1763
▁bronze	-10.1766
▁wasnt	-10.1768
▁bright	-10.1776
▁providing	-10.1779
▁albums	-10.1779
▁alternative	-10.1782
▁1964	-10.1784
▁pat	-10.1791
▁largely	-10.1797
▁youre	-10.1798
new	-10.181
▁grey	-10.1811
▁ba	-10.1818
▁classes	-10.182
yeah	-10.1821
van	-10.1823
gy	-10.1824
▁density	-10.1824
▁nose	-10.1824
▁silent	-10.1827
▁learned	-10.1828
▁situated	-10.1831
▁salt	-10.1834
▁35	-10.1841
▁illinois	-10.1842
nes	-10.1843
▁setting	-10.1846
▁brief	-10.1851
▁shirt	-10.1856
▁cool	-10.1864
long	-10.1868
▁phase	-10.187
▁environmental	-10.188
ara	-10.1884
▁defence	-10.1884
▁harry	-10.1885
▁chamber	-10.1889
4%	-10.189
▁ku	-10.1893
▁angel	-10.1894
▁noticed	-10.1897
▁jose	-10.1898
▁olympic	-10.19
28	-10.1903
▁worth	-10.1904
▁founder	-10.1922
▁kid	-10.1923
▁thirty	-10.1924
▁allowing	-10.1928
▁fame	-10.1936
▁heritage	-10.195
▁etc	-10.195
ng	-10.1955
▁seats	-10.1957
▁nominated	-10.1958
▁bc	-10.1965
2007	-10.1972
▁cricket	-10.1974
san	-10.1985
▁brian	-10.1987
cy	-10.1987
▁classic	-10.1988
▁promotion	-10.1992
▁determined	-10.1993
▁conversation	-10.1994
▁reduced	-10.1995
▁powers	-10.1999
29	-10.2
▁marked	-10.2001
pro	-10.2003
▁web	-10.2009
▁fit	-10.2013
▁granted	-10.2014
▁estimated	-10.2019
▁clean	-10.2022
▁bear	-10.2027
▁equal	-10.2036
▁broad	-10.2042
▁eat	-10.2042
▁vision	-10.2047
2010	-10.2048
▁twelve	-10.205
2008	-10.2062
▁+	-10.2063
▁1966	-10.2071
▁1965	-10.2072
▁write	-10.2075
▁korea	-10.2081
just	-10.2087
▁connection	-10.2091
▁models	-10.2097
ging	-10.2103
▁holds	-10.2103
▁khan	-10.2104
▁attacked	-10.2107
▁expanded	-10.2108
▁ali	-10.2109
8%	-10.211
▁si	-10.2112
▁6,	-10.2119
▁newly	-10.2121
▁independence	-10.2123
▁vampire	-10.2124
▁anyway	-10.2141
▁circle	-10.2143
▁guys	-10.2152
ris	-10.2159
▁exhibition	-10.2162
ot	-10.2169
▁fund	-10.217
ram	-10.2172
▁generation	-10.2173
▁reviews	-10.2175
▁grace	-10.2176
▁toronto	-10.2177
▁billion	-10.2183
ray	-10.2187
▁uncle	-10.2187
ren	-10.2191
▁francis	-10.2193
▁stayed	-10.2198
▁entry	-10.2201
dan	-10.2201
▁opposite	-10.2203
▁sounds	-10.2205
tz	-10.2223
▁interior	-10.2224
where	-10.2226
▁armed	-10.2229
▁signal	-10.2231
▁reference	-10.2236
▁message	-10.2239
▁develop	-10.224
▁drop	-10.224
▁lewis	-10.2242
board	-10.2243
▁davis	-10.2245
▁sar	-10.225
▁massachusetts	-10.2252
▁claims	-10.2256
▁defined	-10.2259
▁hosted	-10.2262
▁reports	-10.2263
▁mal	-10.2264
ial	-10.2264
ig	-10.2266
yan	-10.2266
▁squad	-10.2267
ez	-10.2268
▁respectively	-10.2278
2006	-10.2285
▁unlike	-10.2286
▁anna	-10.2286
▁critics	-10.2291
kan	-10.2291
ward	-10.2293
▁cor	-10.2293
▁clubs	-10.2296
ries	-10.2297
▁enter	-10.2298
water	-10.2299
▁mu	-10.2301
▁sexual	-10.2302
▁yourself	-10.2302
2005	-10.2302
▁ne	-10.2303
▁supply	-10.2304
▁bird	-10.2305
▁rank	-10.2307
▁humans	-10.2309
▁difference	-10.231
▁confirmed	-10.2311
▁ram	-10.2312
▁turns	-10.2313
▁oxford	-10.2314
▁wants	-10.2315
▁ways	-10.2316
▁passing	-10.2321
2009	-10.2325
▁lie	-10.2328
ee	-10.233
▁constitution	-10.2333
ken	-10.2336
ble	-10.2345
▁fly	-10.2358
▁organizations	-10.2359
east	-10.236
▁chain	-10.2367
▁sixth	-10.2375
▁dinner	-10.2378
▁fields	-10.2379
ica	-10.2384
▁missing	-10.2384
tin	-10.2392
ii	-10.2401
▁programme	-10.2405
▁brazil	-10.2408
▁narrow	-10.2415
▁kim	-10.2418
▁philadelphia	-10.2427
▁978	-10.2432
▁intelligence	-10.2434
▁respect	-10.245
▁condition	-10.245
▁dean	-10.2451
▁tradition	-10.2451
nt	-10.2452
▁2000,	-10.2453
▁possibly	-10.2454
▁apartment	-10.2454
▁fuel	-10.2465
▁keeping	-10.2466
ik	-10.2468
▁core	-10.2469
▁clearly	-10.2476
▁barely	-10.2479
80	-10.2486
▁citizens	-10.2487
▁identified	-10.2506
▁rare	-10.2508
▁driving	-10.251
ska	-10.252
▁opportunity	-10.2522
▁entirely	-10.2527
▁materials	-10.2528
▁municipal	-10.2528
▁explained	-10.2532
▁eu	-10.2539
▁micro	-10.2542
art	-10.2546
▁opposition	-10.2554
▁reality	-10.2555
▁representatives	-10.2555
▁2018,	-10.2558
ari	-10.2559
dis	-10.2569
▁damn	-10.2571
▁pale	-10.2579
▁guns	-10.2581
▁afraid	-10.2589
▁desk	-10.2591
▁faculty	-10.2592
nie	-10.2592
▁succeeded	-10.2594
▁7,	-10.2597
▁fu	-10.261
▁mix	-10.2612
47	-10.2617
▁tone	-10.2624
▁shit	-10.2625
▁1944	-10.2628
▁votes	-10.2631
▁resulted	-10.2632
▁jason	-10.2634
▁attorney	-10.2634
▁lose	-10.2634
▁resulting	-10.2638
▁alliance	-10.2641
known	-10.2641
▁conflict	-10.2644
▁pressed	-10.2646
▁reasons	-10.2648
▁haven	-10.2649
▁cells	-10.265
▁target	-10.265
▁creating	-10.2653
▁covers	-10.2654
▁2004,	-10.2655
km	-10.2657
ence	-10.266
▁solid	-10.2662
▁map	-10.2667
▁princess	-10.2668
▁hunter	-10.2668
▁ride	-10.2669
▁colonel	-10.2672
▁height	-10.2675
▁surprised	-10.2679
▁catch	-10.2679
▁sad	-10.2679
▁thin	-10.2681
ize	-10.2689
▁albert	-10.2691
▁roles	-10.2707
▁performing	-10.2712
▁truck	-10.2719
▁figures	-10.2725
▁rolled	-10.2733
▁ryan	-10.2734
▁sword	-10.2735
▁suit	-10.2735
▁authorities	-10.2738
▁cemetery	-10.2742
▁pakistan	-10.2744
▁allows	-10.2748
▁injury	-10.2752
▁trains	-10.2753
down	-10.2756
▁ontario	-10.2762
▁hat	-10.2764
▁fur	-10.2767
▁80	-10.2777
▁cant	-10.2778
▁speech	-10.2779
▁laws	-10.2792
▁oldest	-10.2794
▁criminal	-10.2797
▁documentary	-10.2802
▁maximum	-10.2805
▁portion	-10.2806
ning	-10.2809
▁trans	-10.2809
▁federation	-10.2811
07	-10.2811
▁perform	-10.2817
▁origin	-10.2821
▁orange	-10.2823
ric	-10.2824
▁ranked	-10.2825
▁failure	-10.2827
▁heavily	-10.283
sch	-10.2831
▁staring	-10.2838
▁18,	-10.284
century	-10.2843
▁thousand	-10.2847
▁kg	-10.2852
▁journey	-10.2853
▁express	-10.2856
▁doors	-10.2856
▁roll	-10.2856
▁conservative	-10.2858
qui	-10.2859
▁shall	-10.2868
▁task	-10.2872
▁reaction	-10.2874
▁finding	-10.289
▁titled	-10.2898
▁ja	-10.2903
▁application	-10.2906
▁walter	-10.2908
▁existence	-10.2908
▁contest	-10.2908
pen	-10.2913
burg	-10.2913
▁inc	-10.2914
▁ki	-10.2915
▁1962	-10.2917
wan	-10.2917
88	-10.292
tus	-10.2923
▁miller	-10.2927
▁greatest	-10.2933
▁1963	-10.2942
▁24,	-10.2942
01	-10.2943
▁planet	-10.2947
▁neither	-10.2948
▁calls	-10.2952
dra	-10.2956
ura	-10.2957
▁permanent	-10.2957
▁500	-10.2957
▁buy	-10.2961
▁adult	-10.2962
▁acres	-10.2964
▁titles	-10.2973
▁economy	-10.2976
▁composer	-10.2977
▁atlantic	-10.2978
▁cape	-10.2979
▁display	-10.2988
▁nuclear	-10.2995
▁palm	-10.3006
▁climate	-10.3014
▁netherlands	-10.3016
▁fans	-10.3024
▁obtained	-10.3025
▁gets	-10.3025
2000	-10.3028
▁laugh	-10.3031
did	-10.3032
▁handle	-10.3034
▁inspired	-10.3038
▁officials	-10.3038
▁photo	-10.3039
▁hills	-10.304
85	-10.3045
▁peak	-10.3054
get	-10.3058
▁swedish	-10.3059
▁positions	-10.3062
▁doubt	-10.3063
▁thoughts	-10.3064
▁religion	-10.3064
▁attempted	-10.307
▁pool	-10.3072
▁canal	-10.3074
▁sarah	-10.3076
▁poet	-10.3076
▁ny	-10.308
ft	-10.3081
gu	-10.3085
▁northwest	-10.3085
▁pope	-10.3089
▁educational	-10.309
▁hide	-10.3091
▁actions	-10.3092
yl	-10.3105
▁attacks	-10.3106
▁crossed	-10.3107
▁remembered	-10.3113
▁apparently	-10.312
2004	-10.3128
ok	-10.3131
▁frequently	-10.3132
▁convention	-10.3143
▁op	-10.3147
▁classical	-10.3148
▁landing	-10.315
part	-10.3157
▁abandoned	-10.316
▁passenger	-10.3161
▁answered	-10.3166
▁object	-10.3166
▁aid	-10.3166
2011	-10.3172
▁wear	-10.3173
08	-10.3175
▁chin	-10.3179
▁faith	-10.3179
▁arrested	-10.318
▁sri	-10.3182
▁pictures	-10.3185
▁worse	-10.3197
▁falling	-10.32
▁publishing	-10.3201
▁auto	-10.3205
▁relatively	-10.3206
▁faced	-10.3206
▁korean	-10.3208
hr	-10.3209
▁centuries	-10.3209
▁lyrics	-10.3212
▁mexican	-10.3213
▁poetry	-10.3216
▁internal	-10.3218
▁shadow	-10.3226
▁ending	-10.3227
▁visited	-10.3236
▁jesus	-10.3238
▁kar	-10.324
▁plus	-10.3245
ven	-10.3251
32	-10.3251
▁gar	-10.3252
idae	-10.3254
▁vehicles	-10.326
▁factory	-10.3261
light	-10.3262
▁row	-10.3263
point	-10.3264
▁ash	-10.3277
▁supporting	-10.3277
▁qualified	-10.3282
▁bio	-10.3282
▁chapel	-10.3283
▁8,	-10.329
▁scoring	-10.3291
▁effective	-10.3299
▁cu	-10.3301
▁wa	-10.3304
▁programming	-10.3307
▁threw	-10.3317
▁coat	-10.3318
▁entitled	-10.3318
▁subsequent	-10.332
▁1942	-10.3325
▁existing	-10.3326
▁desire	-10.3328
▁90	-10.3332
▁nu	-10.3332
▁achieved	-10.3336
▁starring	-10.3337
▁selection	-10.3339
▁graduate	-10.3348
▁flag	-10.3348
▁interested	-10.335
lis	-10.335
▁drawn	-10.3352
▁fashion	-10.3355
sha	-10.3362
ists	-10.3365
▁pink	-10.3365
90	-10.3366
bury	-10.3368
▁acts	-10.3375
▁ge	-10.3385
run	-10.3389
▁pet	-10.3392
ros	-10.3393
▁sector	-10.3398
▁soccer	-10.3398
▁duty	-10.3399
▁jane	-10.3403
▁publication	-10.3407
▁philosophy	-10.341
▁dar	-10.3413
▁domestic	-10.3418
▁fresh	-10.3424
ping	-10.3427
▁exist	-10.3431
▁bu	-10.3431
▁theme	-10.3437
when	-10.3443
iz	-10.3445
▁showing	-10.346
ita	-10.3468
▁worry	-10.3471
▁otherwise	-10.3478
▁ju	-10.3479
ud	-10.3484
▁investigation	-10.3485
▁gene	-10.3493
▁methods	-10.3497
des	-10.3504
▁occupied	-10.3505
nan	-10.3508
▁cheek	-10.352
▁performances	-10.352
▁70	-10.3524
▁reform	-10.3534
hand	-10.3536
▁orders	-10.3539
▁1943	-10.3541
pan	-10.3544
▁skills	-10.3548
▁waited	-10.3549
▁fiction	-10.355
▁elementary	-10.3557
ach	-10.3558
2012	-10.3558
▁grow	-10.3558
▁philip	-10.356
▁evil	-10.3565
48	-10.3568
▁stuff	-10.3568
▁address	-10.357
▁literary	-10.3571
some	-10.3572
▁wet	-10.3572
▁knight	-10.3575
▁hate	-10.3577
▁briefly	-10.3578
▁comic	-10.358
lon	-10.3583
▁invited	-10.3585
▁tiny	-10.3586
▁hearing	-10.3586
▁category	-10.3593
tes	-10.3597
▁designated	-10.3601
▁expansion	-10.3602
▁funding	-10.3602
▁lip	-10.3605
▁carl	-10.3605
▁kissed	-10.3606
▁missed	-10.3606
nik	-10.3607
▁streets	-10.3609
▁mobile	-10.3611
▁causing	-10.3611
▁formerly	-10.3613
▁starts	-10.362
▁couldnt	-10.3625
▁incident	-10.3626
illa	-10.3627
▁wooden	-10.3631
▁sweden	-10.3631
▁push	-10.3635
▁credit	-10.3636
ino	-10.3639
▁electronic	-10.3643
▁ty	-10.3648
▁establishment	-10.3654
▁spend	-10.3656
▁behavior	-10.3656
ding	-10.3663
▁sites	-10.3666
▁understanding	-10.3667
▁1961	-10.3669
▁lying	-10.3669
▁sal	-10.367
good	-10.367
▁attempts	-10.3671
▁10,	-10.3675
▁folk	-10.3679
▁prepared	-10.3681
▁darkness	-10.3682
▁identity	-10.3683
▁explain	-10.3688
rie	-10.3691
▁pp	-10.3692
86	-10.3697
▁1946	-10.3702
▁tea	-10.3705
04	-10.3705
▁sin	-10.371
ong	-10.3713
▁1948	-10.3715
▁versions	-10.3722
dale	-10.3727
75	-10.3729
▁restaurant	-10.3729
▁gang	-10.373
ette	-10.3731
▁bureau	-10.3734
▁gain	-10.3737
▁details	-10.374
▁wake	-10.3743
▁communication	-10.3743
▁jeff	-10.375
▁southeast	-10.375
▁patrick	-10.3755
▁slid	-10.3756
▁1959	-10.3757
▁admitted	-10.3762
▁copies	-10.3762
▁sale	-10.3765
▁violence	-10.3768
▁purchase	-10.3769
ag	-10.3771
▁pulling	-10.3771
▁billboard	-10.3779
▁chose	-10.3785
▁anne	-10.3785
▁1956	-10.3786
▁ultimately	-10.3797
tion	-10.3805
▁spin	-10.3808
var	-10.381
▁flow	-10.3812
▁col	-10.3813
▁advantage	-10.382
▁gate	-10.3821
▁rising	-10.3822
ett	-10.3824
70	-10.3834
ec	-10.3837
▁bedroom	-10.3838
▁jaw	-10.3847
gate	-10.3849
▁pu	-10.3857
▁speaking	-10.3867
2003	-10.3868
bit	-10.387
zy	-10.3879
▁crazy	-10.388
ky	-10.3881
▁1958	-10.3887
▁statement	-10.3889
▁regions	-10.3915
▁strike	-10.3917
▁agricultural	-10.3918
izing	-10.3919
▁camera	-10.3924
▁formal	-10.3926
▁architect	-10.3927
▁dragon	-10.3931
▁promise	-10.3933
2002	-10.3934
▁dangerous	-10.3935
▁circuit	-10.3936
▁sell	-10.3936
▁liked	-10.3941
▁carrying	-10.3942
▁val	-10.3942
▁temperature	-10.3942
▁wedding	-10.3943
▁bal	-10.3954
▁accident	-10.3961
▁sick	-10.3965
▁flowers	-10.3967
▁cambridge	-10.3968
▁priest	-10.3974
▁inhabitants	-10.3976
▁aired	-10.3978
▁journalist	-10.398
▁9,	-10.3993
▁1957	-10.3993
▁jay	-10.3995
▁artillery	-10.3997
mm	-10.3998
▁standards	-10.4
▁angry	-10.4003
ative	-10.4004
tri	-10.4006
▁closely	-10.4007
2013	-10.4008
06	-10.4009
▁smoke	-10.401
▁36	-10.4015
▁belt	-10.4016
60	-10.4029
▁anymore	-10.4031
▁articles	-10.4034
val	-10.4035
▁guide	-10.4039
▁asking	-10.4039
▁communications	-10.404
▁wrestling	-10.4041
▁bush	-10.4041
▁tag	-10.4048
cc	-10.4051
▁singing	-10.4052
▁extensive	-10.4062
▁referee	-10.4064
▁anger	-10.4071
▁presidential	-10.4072
▁employed	-10.4074
▁budget	-10.4077
▁cash	-10.4083
▁shi	-10.4084
▁launch	-10.4084
▁struck	-10.409
▁receiving	-10.4092
▁pocket	-10.4092
▁gay	-10.4093
79	-10.4099
▁shock	-10.4104
sp	-10.4105
▁mirror	-10.4108
rus	-10.4108
▁11,	-10.411
ida	-10.411
▁noise	-10.4119
▁plate	-10.4126
▁smell	-10.413
tis	-10.4136
▁besides	-10.4139
▁lights	-10.414
39	-10.4148
▁cabinet	-10.4163
▁loud	-10.4165
▁sets	-10.4166
▁trained	-10.4168
▁2003,	-10.4169
▁4:	-10.417
▁winners	-10.4174
▁1941	-10.4174
pp	-10.4177
▁northeast	-10.4178
▁junction	-10.418
▁tail	-10.4182
▁increasing	-10.4183
ible	-10.4186
▁bachelor	-10.4189
▁bond	-10.419
▁guards	-10.4192
cal	-10.4199
▁survey	-10.42
▁proved	-10.42
▁wings	-10.4204
sel	-10.4205
▁afternoon	-10.4209
del	-10.4212
▁contained	-10.4213
▁cole	-10.4217
▁1952	-10.4218
▁accept	-10.4221
▁sr	-10.4226
ela	-10.4226
ani	-10.4229
▁howard	-10.4234
▁introduction	-10.4237
▁poly	-10.4239
▁legislative	-10.4242
ide	-10.4243
▁institutions	-10.4245
▁tomorrow	-10.4246
▁ends	-10.425
▁gro	-10.4252
▁cathedral	-10.4253
tel	-10.4253
▁progress	-10.4255
▁melbourne	-10.4256
ator	-10.4259
▁visual	-10.4262
▁pin	-10.4264
▁ridge	-10.4267
▁tan	-10.4269
cher	-10.4273
▁actual	-10.4274
▁scale	-10.4274
2001	-10.4275
▁metropolitan	-10.4276
▁regarding	-10.4291
▁wore	-10.4291
▁approved	-10.4292
64	-10.4293
▁va	-10.4293
▁bur	-10.4299
▁chase	-10.43
ens	-10.4302
▁1947	-10.4302
yard	-10.4302
▁sought	-10.4306
▁ideas	-10.4307
▁antonio	-10.4318
▁kevin	-10.432
▁weekly	-10.4321
mal	-10.4321
99	-10.4322
▁moscow	-10.4328
▁tunnel	-10.4329
▁stands	-10.4331
▁saturday	-10.4333
▁commissioned	-10.4333
pin	-10.4334
bb	-10.4335
▁touched	-10.4336
ep	-10.4336
▁somewhere	-10.4344
▁converted	-10.435
▁arena	-10.4358
ova	-10.4359
▁worldwide	-10.436
▁dave	-10.437
▁opposed	-10.4373
▁bow	-10.4378
▁represent	-10.4378
▁images	-10.4379
▁containing	-10.438
▁studios	-10.4381
▁communist	-10.4385
▁crossing	-10.4387
▁coal	-10.4395
▁link	-10.4399
▁fill	-10.44
▁kw	-10.4402
▁shooting	-10.4405
bel	-10.4408
31	-10.4415
▁recognition	-10.4416
pre	-10.4416
46	-10.442
ira	-10.442
▁concerned	-10.4428
▁wondered	-10.443
▁villages	-10.4432
▁mon	-10.4438
▁morgan	-10.4438
▁frame	-10.4441
▁specifically	-10.4441
▁ross	-10.4443
66	-10.4447
▁dvd	-10.4448
shi	-10.4454
▁brick	-10.4456
▁pleasure	-10.4458
▁thank	-10.4463
▁anthony	-10.4463
▁drawing	-10.4463
▁33	-10.4465
▁fixed	-10.4465
▁samuel	-10.4466
ea	-10.4471
▁choose	-10.4475
▁glad	-10.4476
▁hung	-10.4477
▁oak	-10.4486
▁cave	-10.4486
▁retirement	-10.4486
▁founding	-10.449
▁improve	-10.449
wing	-10.4493
▁add	-10.4496
▁neighborhood	-10.4496
▁chemical	-10.4501
▁cal	-10.4502
▁notice	-10.4507
first	-10.4508
▁stupid	-10.4515
set	-10.4517
37	-10.4518
▁wheel	-10.452
▁hal	-10.4521
▁giant	-10.4523
▁1955	-10.4527
▁pe	-10.453
▁developing	-10.4539
▁calm	-10.4545
▁consider	-10.455
02	-10.4552
▁300	-10.4558
▁lane	-10.4559
▁turkey	-10.456
ice	-10.4561
▁tank	-10.4566
▁bat	-10.4571
ano	-10.4573
▁invasion	-10.4583
▁resistance	-10.4584
par	-10.4585
▁ward	-10.4589
▁taste	-10.4593
65	-10.4598
▁institution	-10.4602
▁em	-10.4605
▁fighter	-10.4606
ow	-10.4609
▁1954	-10.461
▁sounded	-10.4612
▁mental	-10.4618
▁provincial	-10.4622
▁patients	-10.4623
▁constant	-10.4625
▁charlie	-10.4626
▁danger	-10.4626
▁warning	-10.4629
ena	-10.463
zer	-10.4637
▁shell	-10.464
uri	-10.4642
▁phil	-10.4642
▁treaty	-10.4647
▁consisted	-10.4652
▁alan	-10.4655
ile	-10.4656
▁senator	-10.4658
03	-10.4659
wick	-10.4659
▁threat	-10.4659
▁han	-10.4659
mus	-10.4663
chan	-10.4664
▁pack	-10.4665
▁34	-10.4666
▁lit	-10.4678
ball	-10.4679
▁juan	-10.4681
▁advance	-10.4683
▁towns	-10.4685
▁ceremony	-10.4686
▁banks	-10.4689
ye	-10.469
▁ye	-10.4691
▁clark	-10.4691
▁1953	-10.4691
▁knows	-10.4693
0%	-10.4701
ai	-10.4701
▁12,	-10.4702
49	-10.4707
▁somehow	-10.4708
▁disc	-10.4708
▁plane	-10.4708
▁1939	-10.4713
▁funds	-10.4714
▁concern	-10.472
ped	-10.4721
▁assumed	-10.4723
▁douglas	-10.4726
▁observed	-10.4729
▁writers	-10.4732
▁twin	-10.4735
▁tennis	-10.4742
▁attached	-10.4744
▁athletic	-10.4745
▁roger	-10.4751
▁personnel	-10.4754
▁offices	-10.4754
97	-10.4754
▁emergency	-10.4761
▁sur	-10.4762
▁device	-10.4767
▁broadcasting	-10.4768
▁attendance	-10.477
worth	-10.4771
▁minnesota	-10.4779
▁grown	-10.4781
▁weapon	-10.4782
din	-10.4782
▁favor	-10.4783
▁rescue	-10.4789
sk	-10.4793
▁bringing	-10.4793
▁hired	-10.4796
▁engaged	-10.4804
▁knees	-10.4806
general	-10.4807
▁rooms	-10.4816
tal	-10.4817
▁drove	-10.482
38	-10.4821
▁arab	-10.4822
tha	-10.4822
▁mall	-10.4825
▁thanks	-10.4828
foot	-10.4831
▁victor	-10.4832
▁lawyer	-10.4833
▁successfully	-10.4834
▁collected	-10.4834
▁allen	-10.4838
▁stairs	-10.484
mu	-10.4842
▁incorporated	-10.4847
▁beauty	-10.4849
69	-10.4851
▁worried	-10.4852
▁negative	-10.4857
▁capture	-10.4858
▁wrapped	-10.4859
▁retrieved	-10.486
▁fe	-10.4862
▁cry	-10.4865
▁hip	-10.4869
▁hidden	-10.4872
▁occurs	-10.4878
▁hoped	-10.488
bre	-10.488
▁grin	-10.4893
▁familiar	-10.49
▁las	-10.4904
▁contributed	-10.4904
▁residence	-10.4907
62	-10.4908
use	-10.4913
far	-10.4914
▁singapore	-10.4918
▁attend	-10.4924
▁desert	-10.4924
▁properties	-10.4925
▁participate	-10.4926
▁ltd	-10.4929
ay	-10.4934
ane	-10.4939
▁investment	-10.4939
▁contrast	-10.494
▁finance	-10.4947
hl	-10.4955
▁helping	-10.4956
▁teachers	-10.4956
▁hamilton	-10.4957
▁employees	-10.4957
▁contain	-10.4957
▁finishing	-10.4958
▁functions	-10.4961
▁1949	-10.4968
▁quietly	-10.4968
▁downtown	-10.4968
▁session	-10.497
▁string	-10.4975
ned	-10.4979
=	-10.498
▁yo	-10.4982
▁importance	-10.4982
▁formula	-10.4988
87	-10.4991
▁manchester	-10.4992
▁pattern	-10.4993
▁combination	-10.4995
two	-10.4997
▁frederick	-10.4999
▁surrounded	-10.5001
▁philippines	-10.5005
rah	-10.5005
fe	-10.5006
▁mode	-10.5007
▁expressed	-10.501
▁$1	-10.5014
ula	-10.5015
▁occur	-10.5015
elle	-10.5015
▁determine	-10.5016
▁papers	-10.5024
▁plain	-10.5027
▁15,	-10.5033
▁survived	-10.5034
▁birds	-10.5037
▁egypt	-10.5038
2014	-10.5042
▁inner	-10.5042
▁items	-10.5042
▁mor	-10.5042
iv	-10.5045
▁scheduled	-10.5047
▁jordan	-10.505
▁2002,	-10.5056
▁iv	-10.506
vis	-10.5062
▁moore	-10.5063
▁walker	-10.5065
▁joining	-10.5066
▁stream	-10.5068
▁applications	-10.5073
▁kings	-10.5074
▁billy	-10.5076
▁examples	-10.5077
istic	-10.508
▁request	-10.5083
▁southwest	-10.5084
▁seventh	-10.5087
36	-10.5089
56	-10.509
▁jake	-10.509
▁argued	-10.5094
lar	-10.5095
▁norwegian	-10.5096
▁anderson	-10.5098
▁sp	-10.5098
work	-10.5099
▁decades	-10.5099
▁rush	-10.51
ua	-10.5108
▁massive	-10.5109
ston	-10.511
▁passes	-10.5114
84	-10.5114
▁gordon	-10.5114
▁baron	-10.5115
▁representing	-10.5116
▁mention	-10.5117
▁tie	-10.5118
▁norway	-10.5119
▁finds	-10.5124
▁plot	-10.5124
▁universe	-10.5124
▁cook	-10.5127
▁registered	-10.5132
▁tied	-10.5133
▁protected	-10.5133
98	-10.5135
▁thousands	-10.5135
▁refers	-10.5137
dr	-10.5138
ities	-10.514
▁fruit	-10.514
▁painter	-10.5143
▁sang	-10.5145
ama	-10.5147
▁1951	-10.5163
▁throw	-10.5164
▁structures	-10.5165
▁bomb	-10.5166
bal	-10.5171
▁forever	-10.5173
▁tropical	-10.5176
▁usual	-10.5176
▁parallel	-10.5178
bus	-10.5178
▁transportation	-10.5184
▁14,	-10.5184
stein	-10.5185
▁loan	-10.5189
▁softly	-10.519
74	-10.5191
▁inches	-10.5191
▁rob	-10.5191
▁kansas	-10.5196
▁manner	-10.52
▁cinema	-10.5215
▁listen	-10.5216
▁biggest	-10.5223
95	-10.5224
▁horses	-10.5229
▁painted	-10.5236
▁favorite	-10.5241
die	-10.5242
▁aside	-10.5244
▁distinguished	-10.5244
hill	-10.5249
lie	-10.5252
mes	-10.5261
▁covering	-10.5261
▁hunt	-10.5263
▁austria	-10.5265
ery	-10.5266
▁certainly	-10.5271
▁br	-10.5271
▁amateur	-10.5272
▁historian	-10.5272
▁aware	-10.5275
▁terminal	-10.5276
▁forget	-10.5278
▁dj	-10.5278
▁hits	-10.5278
state	-10.528
▁muslim	-10.5281
▁resigned	-10.5282
sc	-10.5282
ming	-10.5282
▁churches	-10.5283
▁pra	-10.5286
▁injured	-10.5287
▁rev	-10.5288
▁capable	-10.5288
▁woods	-10.5295
ich	-10.5297
▁colonial	-10.53
▁districts	-10.5308
▁putting	-10.531
▁typical	-10.5311
▁gently	-10.5318
▁jews	-10.5319
89	-10.5321
▁users	-10.5322
▁underground	-10.5326
top	-10.5329
▁luke	-10.5339
▁experienced	-10.534
▁13,	-10.5341
▁script	-10.5341
aw	-10.5342
▁1900	-10.5345
▁21,	-10.5347
▁demand	-10.5351
1999	-10.5352
▁vietnam	-10.5354
63	-10.5355
▁breaking	-10.5359
▁file	-10.536
eo	-10.5361
▁bor	-10.5361
▁extension	-10.5364
▁reign	-10.5365
▁extremely	-10.5365
▁fired	-10.5368
▁arrival	-10.5369
▁merged	-10.5371
59	-10.5373
▁commune	-10.5373
may	-10.5376
▁smooth	-10.538
level	-10.5383
▁sum	-10.5384
2015	-10.5386
hey	-10.5392
▁weak	-10.54
▁beer	-10.5403
▁lands	-10.5408
▁asks	-10.5417
present	-10.542
ties	-10.5424
▁objects	-10.5429
▁anniversary	-10.5432
▁scenes	-10.5433
▁tries	-10.5441
rich	-10.5446
▁les	-10.545
▁23,	-10.5451
▁missouri	-10.5456
▁till	-10.5457
▁agriculture	-10.5457
▁maintained	-10.5461
▁influenced	-10.5464
▁dynasty	-10.5469
▁rolling	-10.547
▁horror	-10.5472
▁backing	-10.5474
▁factor	-10.5481
▁paintings	-10.5485
▁replace	-10.5492
▁hoping	-10.5494
▁jump	-10.5494
▁burned	-10.5495
▁jon	-10.5501
▁borough	-10.5501
▁kelly	-10.5502
42	-10.5505
▁indiana	-10.5505
▁bull	-10.5508
▁shore	-10.5508
▁sisters	-10.551
▁2001,	-10.5511
▁promote	-10.5514
▁dressed	-10.5516
▁partnership	-10.5516
▁regarded	-10.5517
non	-10.5517
dal	-10.5522
▁decade	-10.5522
▁22,	-10.5522
▁26,	-10.5522
▁roads	-10.5523
▁mess	-10.5524
tar	-10.5525
▁controlled	-10.5527
▁steam	-10.5527
▁grass	-10.553
▁license	-10.5532
54	-10.5535
term	-10.5538
34	-10.5539
lock	-10.5539
come	-10.5546
▁und	-10.5548
▁vocal	-10.5553
including	-10.5555
ph	-10.5559
▁raise	-10.5565
▁colorado	-10.5567
▁dating	-10.5568
▁compete	-10.5569
wi	-10.5572
▁educated	-10.5574
▁smart	-10.5576
▁yeah	-10.5578
81	-10.5581
▁derived	-10.5583
gue	-10.5583
nia	-10.5585
mont	-10.5587
▁bra	-10.5592
▁metro	-10.5595
cu	-10.5596
▁handed	-10.5596
▁conduct	-10.5598
▁hole	-10.5604
▁lock	-10.5607
▁impossible	-10.5614
000	-10.5616
▁soldier	-10.5622
▁ghost	-10.5623
tro	-10.5625
▁pot	-10.5628
▁queensland	-10.5631
▁improved	-10.5631
▁ce	-10.5634
▁jam	-10.5634
▁delivered	-10.5635
▁unless	-10.5636
▁collaboration	-10.5636
▁cloud	-10.5637
▁marie	-10.5637
▁realize	-10.5645
▁protein	-10.5646
72	-10.5651
▁weekend	-10.566
▁locked	-10.566
▁outstanding	-10.5662
▁wounded	-10.5663
▁understood	-10.5672
season	-10.5681
▁engines	-10.5687
▁rio	-10.5691
▁karl	-10.5691
▁19,	-10.5697
ks	-10.5699
▁28,	-10.5699
53	-10.57
▁audio	-10.5705
▁responsibility	-10.5708
▁bath	-10.5708
▁knife	-10.5708
▁maintain	-10.5709
ix	-10.5713
▁charged	-10.5718
▁sequence	-10.5718
100	-10.5724
▁maryland	-10.5728
▁var	-10.5729
▁golf	-10.573
▁oregon	-10.5731
▁clay	-10.5735
▁apple	-10.5737
▁sara	-10.574
▁classification	-10.5742
▁bottle	-10.5746
▁wins	-10.5746
▁diego	-10.575
▁crisis	-10.5753
▁burning	-10.5758
▁arizona	-10.5762
▁composition	-10.5766
▁causes	-10.5767
33	-10.5771
▁tennessee	-10.5774
▁spoken	-10.5774
▁carefully	-10.5775
▁opinion	-10.5777
▁dick	-10.5787
▁boss	-10.5789
▁operate	-10.5789
▁aged	-10.5791
▁indeed	-10.5795
▁measure	-10.5796
ban	-10.5799
96	-10.5799
▁deck	-10.58
▁ensure	-10.5803
▁feed	-10.5807
▁translation	-10.5814
▁27,	-10.5817
▁installed	-10.5825
▁assistance	-10.5826
▁mur	-10.5828
93	-10.5833
▁values	-10.5835
05	-10.5835
▁margaret	-10.5837
▁decide	-10.5838
▁candidates	-10.5846
82	-10.585
▁dates	-10.5853
▁require	-10.5855
▁wisconsin	-10.5856
▁jacob	-10.586
▁organisation	-10.5862
▁producing	-10.5863
sur	-10.5863
55	-10.5865
▁trophy	-10.5871
▁hy	-10.5873
▁lincoln	-10.5874
▁switzerland	-10.5875
▁establish	-10.5879
▁blues	-10.5886
▁offering	-10.5887
ability	-10.5888
▁cards	-10.5893
▁30,	-10.5895
▁gotten	-10.5899
▁locations	-10.5901
fu	-10.591
▁voted	-10.5916
jan	-10.5916
gon	-10.5917
▁gi	-10.5923
▁nfl	-10.593
life	-10.593
▁musician	-10.5933
ser	-10.5934
▁concrete	-10.5938
▁shifted	-10.5945
▁quebec	-10.5949
ell	-10.5956
▁25,	-10.5962
our	-10.5963
▁ham	-10.5963
▁israeli	-10.5967
▁panel	-10.597
▁affected	-10.5971
▁disappeared	-10.5974
▁sha	-10.5976
▁tired	-10.5976
cut	-10.5979
▁proper	-10.5983
fo	-10.5985
low	-10.5994
▁1936	-10.5999
▁johnny	-10.6005
yn	-10.6007
▁accused	-10.601
▁worst	-10.601
▁gap	-10.6013
▁jimmy	-10.6023
▁mono	-10.6026
78	-10.6026
▁somewhat	-10.6027
▁approached	-10.6028
▁prix	-10.603
▁stores	-10.6035
▁acid	-10.6036
▁reduce	-10.6041
▁bands	-10.6043
▁bound	-10.6045
▁musicians	-10.6051
una	-10.6055
▁context	-10.6057
▁16,	-10.6058
▁fallen	-10.6058
▁weren	-10.606
▁ph	-10.6065
▁views	-10.6072
▁normally	-10.6074
▁hi	-10.6075
was	-10.6078
▁cycle	-10.6079
▁indicated	-10.6082
▁medium	-10.6083
▁heads	-10.6089
1998	-10.6091
▁user	-10.6091
▁1918	-10.6093
sie	-10.6096
▁38	-10.6097
▁concluded	-10.6098
▁consisting	-10.6099
▁ann	-10.6102
▁42	-10.6105
▁rick	-10.6118
▁committed	-10.612
▁universities	-10.6121
ika	-10.6123
67	-10.6123
1997	-10.6125
▁associate	-10.6125
▁turkish	-10.6129
▁bruce	-10.6133
▁universal	-10.6133
▁fault	-10.6134
▁ti	-10.6139
▁pit	-10.6141
aka	-10.6148
▁stating	-10.6149
▁demon	-10.6153
▁shield	-10.6154
▁organ	-10.6156
win	-10.6158
▁rough	-10.6162
right	-10.6167
▁flew	-10.6169
ue	-10.617
▁expect	-10.617
▁houston	-10.6175
▁fifteen	-10.6179
▁liquid	-10.6179
form	-10.6186
▁cousin	-10.6186
nis	-10.619
▁kate	-10.619
▁pi	-10.6194
▁consecutive	-10.6195
▁separated	-10.6196
▁portuguese	-10.6199
▁hollywood	-10.6204
▁grounds	-10.6204
▁sugar	-10.6205
pu	-10.6212
ology	-10.6213
▁passengers	-10.6216
▁1938	-10.6218
ben	-10.6218
▁ethnic	-10.6219
▁gift	-10.6222
▁feelings	-10.6224
▁adjacent	-10.6227
▁odd	-10.6227
▁fat	-10.6228
▁techniques	-10.623
tell	-10.6231
▁constituency	-10.6231
nu	-10.6233
▁mail	-10.6234
▁regularly	-10.6235
▁leon	-10.624
57	-10.624
▁prove	-10.6244
ure	-10.6247
▁defensive	-10.6248
elli	-10.6255
▁sudden	-10.6257
▁insurance	-10.6258
▁changing	-10.6265
▁costs	-10.6267
sey	-10.6274
▁clock	-10.6277
▁confused	-10.6281
▁creative	-10.6291
▁min	-10.6291
▁faster	-10.6292
▁benefit	-10.6292
▁ms	-10.6297
▁mini	-10.6307
key	-10.6309
▁ruled	-10.6311
▁closing	-10.6314
mel	-10.6317
71	-10.632
ala	-10.6324
▁mining	-10.6326
▁sighed	-10.6328
▁ser	-10.6329
51	-10.633
▁riding	-10.6332
▁bathroom	-10.6333
burn	-10.6334
▁fred	-10.6338
▁repeated	-10.6338
▁letting	-10.6345
▁#1	-10.6347
▁eleven	-10.6347
▁option	-10.6347
▁gear	-10.6352
zen	-10.6353
▁clan	-10.6353
▁leads	-10.6357
▁20,	-10.6366
zu	-10.6368
▁appeal	-10.6369
▁flesh	-10.6372
▁mathematics	-10.6377
▁tip	-10.6381
▁lucky	-10.6381
▁pure	-10.6383
44	-10.6383
iya	-10.6386
▁fer	-10.6393
▁parking	-10.6394
ical	-10.6395
▁ceiling	-10.6395
▁2:	-10.6395
▁net	-10.6396
▁scheme	-10.6396
▁mat	-10.6398
kh	-10.6404
68	-10.6408
▁persons	-10.6412
▁rod	-10.6412
▁crystal	-10.6417
bed	-10.6427
58	-10.6431
▁meanwhile	-10.6432
dia	-10.6434
kov	-10.6443
▁17,	-10.6447
such	-10.6449
▁charter	-10.6451
▁discovery	-10.6451
▁childhood	-10.6452
▁expedition	-10.6453
▁37	-10.6453
▁solution	-10.6457
pot	-10.6459
hara	-10.6459
▁jumped	-10.6461
▁29,	-10.6469
▁arranged	-10.6469
▁hay	-10.6473
▁resolution	-10.6477
▁sch	-10.6477
▁threatened	-10.6482
▁smiling	-10.6484
▁burn	-10.6484
ip	-10.6488
▁diocese	-10.6489
▁greece	-10.6493
▁fo	-10.6494
▁lunch	-10.6495
▁pace	-10.6499
▁swiss	-10.6501
your	-10.6506
▁secure	-10.6507
▁hart	-10.6508
▁moth	-10.651
▁horn	-10.6512
▁tokyo	-10.6513
▁1937	-10.6518
cia	-10.6531
▁meters	-10.6532
▁carter	-10.6533
▁shaking	-10.6539
▁facing	-10.654
▁storage	-10.6542
92	-10.6542
oo	-10.6545
▁accompanied	-10.6549
isation	-10.655
▁translated	-10.6552
▁residential	-10.6562
▁raw	-10.6566
lus	-10.6566
▁leather	-10.6568
▁harris	-10.6568
▁gabriel	-10.6569
▁tele	-10.6569
▁physics	-10.6574
52	-10.6574
los	-10.6574
▁indicate	-10.6575
▁lab	-10.6577
▁copy	-10.6585
▁schedule	-10.6586
▁dust	-10.6587
▁uniform	-10.6593
▁index	-10.6596
▁begun	-10.6596
▁exit	-10.6596
▁additionally	-10.6601
▁matthew	-10.6602
▁400	-10.6603
▁150	-10.6603
▁selling	-10.6604
nee	-10.6605
sia	-10.6609
▁kha	-10.661
▁describes	-10.6611
▁assault	-10.6614
▁fin	-10.6616
eh	-10.6619
▁membership	-10.6623
1990	-10.6623
▁moments	-10.6624
yer	-10.6625
eng	-10.6625
▁neo	-10.6637
▁ga	-10.6641
▁pal	-10.6644
▁notably	-10.6644
fl	-10.6644
▁waist	-10.6652
▁documents	-10.6657
ata	-10.6659
▁shoot	-10.6663
▁saved	-10.6665
▁rifle	-10.6666
▁conservation	-10.6669
▁gen	-10.6671
style	-10.6672
▁imagine	-10.6673
▁ears	-10.6674
▁64	-10.6677
▁soil	-10.668
take	-10.6682
▁distributed	-10.6685
▁landed	-10.6686
▁arrest	-10.6686
▁41	-10.6687
ae	-10.6689
▁courses	-10.6689
▁legend	-10.6692
▁busy	-10.6695
▁branches	-10.6695
▁shah	-10.6697
▁victims	-10.6698
his	-10.67
▁ambassador	-10.6701
▁montreal	-10.6701
lia	-10.6707
▁mph	-10.671
$	-10.6712
lum	-10.6714
ada	-10.6715
▁norman	-10.6716
▁destroy	-10.672
▁interests	-10.6721
▁obviously	-10.6721
▁enjoyed	-10.6723
▁publications	-10.6724
▁dreams	-10.6733
▁counties	-10.6734
lay	-10.674
ensis	-10.6744
story	-10.6745
pt	-10.6747
▁breathing	-10.6749
▁duties	-10.6751
▁charlotte	-10.6751
▁distinct	-10.6753
▁kent	-10.6755
world	-10.6759
▁commonwealth	-10.676
▁kentucky	-10.6765
▁businesses	-10.6766
▁strategy	-10.6771
▁meat	-10.6773
▁hu	-10.6775
▁cho	-10.6779
▁testing	-10.6782
▁pad	-10.6783
▁flash	-10.6784
▁pages	-10.6786
▁kor	-10.6789
76	-10.679
▁homes	-10.6791
enberg	-10.6795
▁lawrence	-10.6798
73	-10.6805
▁detroit	-10.6808
▁degrees	-10.6811
▁gary	-10.6818
▁sq	-10.6819
lam	-10.6821
▁ron	-10.6822
room	-10.6828
▁earliest	-10.684
sson	-10.6843
▁ottoman	-10.6844
because	-10.6845
▁willing	-10.6847
▁landscape	-10.6848
▁cable	-10.6852
▁birthday	-10.6853
▁correct	-10.6858
▁roughly	-10.686
▁bid	-10.686
▁blow	-10.6861
ew	-10.6863
bert	-10.6864
ified	-10.6865
▁rachel	-10.6867
▁fifty	-10.6867
▁czech	-10.6872
▁grip	-10.6876
▁glen	-10.6876
▁balance	-10.6876
▁heaven	-10.6877
▁rapid	-10.6877
▁shift	-10.6878
91	-10.6881
▁jonathan	-10.6883
type	-10.6886
▁superior	-10.6892
▁emma	-10.6892
▁racial	-10.6892
▁romantic	-10.6893
▁christopher	-10.6896
▁lb	-10.6898
▁sing	-10.6899
ale	-10.69
▁dear	-10.6901
cin	-10.6904
▁detective	-10.6913
▁cooper	-10.6914
▁bent	-10.6914
1995	-10.6915
▁continuing	-10.6918
▁roy	-10.6919
▁argentina	-10.692
▁document	-10.6922
▁studying	-10.6924
1996	-10.6926
▁plastic	-10.6929
▁limit	-10.6929
▁graham	-10.6931
▁charges	-10.6931
41	-10.6935
▁poverty	-10.6939
▁sections	-10.6943
ub	-10.6944
▁debate	-10.6946
▁villa	-10.6948
▁hanging	-10.6951
▁slipped	-10.6952
▁instruments	-10.6952
2016	-10.6956
▁louisiana	-10.6958
▁runner	-10.6963
▁bin	-10.6963
▁joy	-10.6963
▁transition	-10.6964
▁damaged	-10.6964
▁owners	-10.6968
▁islamic	-10.6969
▁occupation	-10.6969
▁tribe	-10.6969
▁miami	-10.6969
▁element	-10.6973
▁stable	-10.6973
bach	-10.6975
▁hor	-10.6977
▁agree	-10.6978
▁medieval	-10.6978
▁marshall	-10.6978
mark	-10.6986
▁1999,	-10.6988
▁colony	-10.699
▁reputation	-10.6994
▁visitors	-10.6995
▁economics	-10.6997
▁occasionally	-10.6998
▁fishing	-10.7002
▁solar	-10.7003
77	-10.7003
▁praised	-10.7007
▁severe	-10.7008
▁cow	-10.701
▁socialist	-10.7011
▁hundreds	-10.7013
high	-10.7019
▁relative	-10.7022
▁lang	-10.7025
▁1919	-10.7026
▁hang	-10.7027
bridge	-10.7034
▁criticism	-10.7034
▁stuck	-10.7035
och	-10.7035
▁mel	-10.7036
▁gender	-10.7037
▁aunt	-10.7041
▁operates	-10.7046
▁shower	-10.7047
▁matters	-10.7053
sis	-10.7059
▁successor	-10.7059
▁1908	-10.7064
▁visible	-10.7065
▁rice	-10.7066
bs	-10.7069
▁survive	-10.708
▁48	-10.708
▁talent	-10.7082
▁pri	-10.7087
▁responded	-10.7087
▁rhythm	-10.7089
▁protest	-10.7089
gun	-10.709
▁dublin	-10.71
gg	-10.7105
▁kal	-10.7107
▁truly	-10.7109
▁whilst	-10.7111
▁44	-10.7111
▁alice	-10.7114
▁makeup	-10.7115
under	-10.7117
called	-10.7117
▁franchise	-10.7125
▁heading	-10.7126
love	-10.7128
▁memories	-10.7133
▁fm	-10.7134
▁kennedy	-10.7134
▁manufacturing	-10.7136
94	-10.7137
▁existed	-10.7139
▁respond	-10.7139
▁promised	-10.7143
▁ceo	-10.7147
▁appropriate	-10.7148
master	-10.7152
▁rat	-10.7153
▁1911	-10.7153
▁crash	-10.7157
ib	-10.7159
▁talked	-10.7159
▁waste	-10.7165
▁afterwards	-10.7167
▁equivalent	-10.717
▁domain	-10.717
▁entering	-10.7171
▁1917	-10.7175
▁zero	-10.7175
▁tre	-10.718
▁kan	-10.7182
▁colour	-10.7184
▁replacement	-10.7184
▁vs	-10.7184
▁purposes	-10.719
▁singh	-10.7193
oli	-10.7194
▁fate	-10.7196
ked	-10.7199
▁restored	-10.7201
▁electrical	-10.7201
▁friday	-10.7205
▁productions	-10.7207
200	-10.7207
ene	-10.7209
▁soundtrack	-10.7211
▁pine	-10.7211
▁parliamentary	-10.7213
▁dancing	-10.7214
▁courts	-10.7217
▁mp	-10.7219
▁poem	-10.722
most	-10.7221
▁blind	-10.7222
▁offensive	-10.7222
▁1935	-10.7223
ification	-10.7224
ese	-10.7227
cus	-10.7228
▁nelson	-10.7229
▁wanting	-10.723
free	-10.7232
▁yard	-10.7233
▁je	-10.7233
▁scholars	-10.7236
▁1929	-10.7237
43	-10.7238
▁coastal	-10.724
▁eddie	-10.7241
▁rating	-10.7242
▁49	-10.7242
▁harvard	-10.725
▁1890	-10.7253
rock	-10.7264
▁raf	-10.7272
▁paused	-10.7278
▁critic	-10.7279
▁recordings	-10.7286
▁1914	-10.7286
▁shake	-10.729
▁vast	-10.7292
▁helen	-10.7295
mond	-10.7298
▁cavalry	-10.7299
wer	-10.7302
lic	-10.7303
▁bone	-10.7311
▁austin	-10.7312
cap	-10.7313
▁amongst	-10.7314
▁honorary	-10.7317
▁euro	-10.7319
▁russell	-10.7319
▁forty	-10.7323
▁tools	-10.7327
dic	-10.7331
▁obvious	-10.7334
▁loose	-10.7337
tte	-10.7339
▁marry	-10.7342
▁symbol	-10.7343
▁kat	-10.735
▁suicide	-10.7351
▁remove	-10.7353
▁rejected	-10.7355
▁guitarist	-10.7357
▁triple	-10.7359
▁swimming	-10.7379
▁arc	-10.738
▁speaker	-10.7381
med	-10.7383
▁achieve	-10.7383
▁devices	-10.7384
▁photography	-10.7385
▁belgium	-10.7387
▁ncaa	-10.7389
▁coalition	-10.739
▁aviation	-10.7395
▁enjoy	-10.7404
▁struggle	-10.7414
▁column	-10.7424
▁measures	-10.743
▁temporary	-10.7433
▁virgin	-10.7435
▁hero	-10.7438
yu	-10.744
▁burst	-10.744
▁manage	-10.7441
▁unusual	-10.7441
▁dallas	-10.7441
▁danish	-10.7445
five	-10.7445
ons	-10.7451
▁directors	-10.7456
▁commissioner	-10.7459
aki	-10.7465
persian	-10.7465
▁75	-10.7466
lee	-10.7467
▁throne	-10.7468
▁foster	-10.7468
▁represents	-10.7472
▁julian	-10.7472
▁adding	-10.7474
▁sean	-10.7474
▁mag	-10.7474
▁partners	-10.7475
view	-10.7476
▁1910	-10.7476
▁linked	-10.7476
▁kick	-10.7477
▁sc	-10.748
▁gil	-10.748
▁dun	-10.7481
russian	-10.7484
▁oklahoma	-10.7489
cur	-10.7491
▁mississippi	-10.7496
83	-10.7498
▁gulf	-10.7498
▁peninsula	-10.7499
▁subjects	-10.7503
▁franklin	-10.7504
▁nervous	-10.7505
▁designer	-10.7511
▁marketing	-10.7512
▁gathered	-10.7513
▁shin	-10.7521
▁laboratory	-10.7522
nor	-10.7522
▁designs	-10.7523
german	-10.7523
▁extreme	-10.753
yama	-10.7534
▁dc	-10.7542
▁friendly	-10.7543
hour	-10.7544
▁laughing	-10.7551
▁guilty	-10.7552
▁grandfather	-10.7552
▁depending	-10.7553
▁1933	-10.7555
ante	-10.7556
rum	-10.7557
▁spell	-10.7563
ved	-10.7564
▁gardens	-10.7566
▁resort	-10.7569
▁parent	-10.757
▁luis	-10.757
▁bla	-10.757
▁gods	-10.7573
▁waters	-10.7576
▁climb	-10.7577
bin	-10.7577
▁adams	-10.7584
▁clothing	-10.7586
▁campbell	-10.7588
▁factors	-10.7589
▁sleeping	-10.7589
▁carbon	-10.7591
okay	-10.7595
gh	-10.7596
▁requires	-10.7598
▁drugs	-10.7599
▁eliminated	-10.7599
▁grave	-10.76
▁beating	-10.7601
▁requirements	-10.7604
▁seattle	-10.7604
▁stewart	-10.7605
▁treated	-10.7606
▁1928	-10.7608
▁carlos	-10.7609
track	-10.761
▁print	-10.7611
▁ru	-10.7613
▁movies	-10.7614
nic	-10.7616
▁jet	-10.7616
▁susan	-10.762
▁basin	-10.7622
▁hans	-10.7629
ably	-10.7631
▁edited	-10.7633
▁visiting	-10.7634
▁robin	-10.7635
▁rapidly	-10.7637
▁comics	-10.7638
▁wi	-10.764
▁wo	-10.7643
▁harbor	-10.7648
nar	-10.765
▁useful	-10.7651
ct	-10.7659
▁possibility	-10.767
▁wu	-10.7682
▁returns	-10.7682
▁contributions	-10.7683
▁prisoners	-10.7684
▁seriously	-10.7685
▁statue	-10.7686
▁milk	-10.7686
61	-10.7687
▁wars	-10.7689
▁concerns	-10.7691
▁dawn	-10.7692
▁ratio	-10.7692
▁31,	-10.7693
▁pol	-10.7694
▁glance	-10.7697
mc	-10.7698
las	-10.7698
▁atlanta	-10.77
▁signs	-10.7705
▁austrian	-10.7705
▁chu	-10.7707
▁gu	-10.7708
▁patient	-10.771
▁spending	-10.7715
▁involving	-10.7715
▁spiritual	-10.7716
▁poems	-10.7716
▁forehead	-10.7722
▁aspects	-10.7723
▁knee	-10.7724
▁jobs	-10.7725
▁policies	-10.7725
▁cab	-10.7727
▁aren	-10.7728
▁1934	-10.7729
▁passage	-10.7731
▁premiered	-10.7731
▁instance	-10.7732
▁supplies	-10.7734
▁snapped	-10.7739
▁drinking	-10.7739
▁wound	-10.774
▁bare	-10.7742
ians	-10.7743
▁sigh	-10.7746
lyn	-10.7748
▁rocks	-10.7751
▁sim	-10.7754
▁abbey	-10.7754
▁1932	-10.7759
▁slip	-10.7763
▁app	-10.7764
rat	-10.7764
▁upset	-10.7767
▁compilation	-10.7769
rick	-10.777
▁appearing	-10.7772
▁corporate	-10.7778
▁marks	-10.7778
▁technique	-10.7779
▁surgery	-10.778
gle	-10.7784
▁adapted	-10.7785
later	-10.7786
▁americans	-10.7788
▁revival	-10.7793
▁cro	-10.7794
put	-10.78
four	-10.78
▁interesting	-10.7802
▁shopping	-10.7807
▁mas	-10.7814
▁external	-10.7822
▁thompson	-10.7824
▁rap	-10.7826
▁movements	-10.7827
▁39	-10.7827
▁stages	-10.7828
▁char	-10.7829
night	-10.783
▁tests	-10.7835
▁cleared	-10.7838
▁outer	-10.7838
▁mounted	-10.7838
▁drum	-10.784
pr	-10.784
bat	-10.7844
▁gor	-10.7847
▁charity	-10.7847
▁iraq	-10.7852
▁faces	-10.7853
▁appointment	-10.7857
▁fantasy	-10.7859
▁sending	-10.7862
▁monument	-10.7862
▁daughters	-10.7862
▁legislature	-10.7863
▁1998,	-10.7865
▁alternate	-10.7867
▁denmark	-10.7867
▁couch	-10.7872
▁bones	-10.7876
▁wayne	-10.7877
▁artistic	-10.788
▁jacket	-10.788
tam	-10.7881
▁1912	-10.7882
▁differences	-10.7882
▁anywhere	-10.7886
bur	-10.7889
▁id	-10.7889
az	-10.789
ington	-10.789
▁moves	-10.7897
▁baker	-10.7897
▁bre	-10.7903
▁puerto	-10.7906
▁grab	-10.7907
final	-10.7907
▁acted	-10.7908
fish	-10.791
▁1924	-10.7922
best	-10.7927
hal	-10.7931
1994	-10.7931
▁definitely	-10.7933
usa	-10.7937
gal	-10.7939
▁happening	-10.794
even	-10.7942
▁rad	-10.7945
▁vienna	-10.7945
▁orleans	-10.795
osa	-10.7951
▁listening	-10.7957
▁ros	-10.7957
▁easier	-10.7961
rak	-10.7961
▁depression	-10.7962
▁mechanical	-10.7962
▁warren	-10.7964
oma	-10.7965
▁retained	-10.7968
▁suffering	-10.797
▁satellite	-10.7973
▁tamil	-10.7977
▁elevation	-10.7978
ava	-10.7978
▁choir	-10.7982
aire	-10.7984
sar	-10.7987
only	-10.7987
cor	-10.7989
▁edinburgh	-10.799
tia	-10.7992
▁allied	-10.7993
▁dying	-10.7995
▁orthodox	-10.7995
▁ze	-10.7998
gra	-10.8002
▁1905	-10.8004
▁ethan	-10.8005
▁credited	-10.8005
▁actors	-10.8005
▁advice	-10.8006
▁blade	-10.8007
sy	-10.8007
▁ukraine	-10.8011
▁che	-10.8012
▁portugal	-10.8016
▁summit	-10.8018
▁iowa	-10.803
▁cabin	-10.8031
▁percussion	-10.8035
▁approval	-10.8035
▁rival	-10.8036
1993	-10.8036
▁robinson	-10.8041
▁ranking	-10.8042
▁1922	-10.8042
▁poll	-10.8043
ob	-10.805
▁describe	-10.8053
▁false	-10.8053
▁strip	-10.8054
▁blake	-10.8055
round	-10.8056
▁masters	-10.8061
shaped	-10.8065
▁debuted	-10.8071
▁adaptation	-10.8071
▁sole	-10.8071
▁mud	-10.8071
second	-10.8075
rian	-10.8076
had	-10.8079
▁maintenance	-10.808
ware	-10.8085
▁scholar	-10.8087
▁1931	-10.8093
▁adults	-10.8093
▁emerged	-10.8097
▁43	-10.8098
▁refer	-10.8101
▁goods	-10.8103
▁honour	-10.8106
▁strongly	-10.8109
▁morris	-10.8111
▁1927	-10.8111
▁alabama	-10.8115
mb	-10.8116
nal	-10.8118
▁alfred	-10.8119
▁gal	-10.8122
▁shoes	-10.8123
▁employment	-10.8127
▁dna	-10.8128
▁1925	-10.813
▁wright	-10.8131
election	-10.8132
via	-10.8132
▁eve	-10.8132
wen	-10.8133
▁industries	-10.8138
▁hunting	-10.8141
▁remix	-10.8144
▁scent	-10.8147
▁cheeks	-10.8148
shire	-10.8154
▁exposed	-10.8154
▁battery	-10.8155
▁1907	-10.8155
▁hungarian	-10.8157
▁lucas	-10.8158
▁seek	-10.816
▁suggests	-10.8165
▁routes	-10.8166
white	-10.8166
ces	-10.8167
▁brazilian	-10.8168
▁increasingly	-10.8168
▁cleveland	-10.8172
▁scared	-10.8173
▁math	-10.8174
▁1906	-10.8178
▁cre	-10.818
hall	-10.8183
▁leo	-10.8184
▁shed	-10.8184
▁jamie	-10.8186
▁legislation	-10.8189
▁welsh	-10.8191
▁funny	-10.8191
▁boundary	-10.8192
▁starred	-10.8193
bro	-10.8194
▁stanley	-10.8194
▁arch	-10.8198
▁circumstances	-10.8202
▁bru	-10.8208
▁ownership	-10.822
▁forming	-10.8222
▁pushing	-10.8228
▁bel	-10.8229
▁thumb	-10.8232
▁abc	-10.8237
▁merchant	-10.8239
▁1921	-10.8239
▁traveled	-10.824
▁panic	-10.8242
▁46	-10.8243
▁significantly	-10.8245
▁strategic	-10.8245
▁cur	-10.8246
▁considerable	-10.8248
cent	-10.8251
▁components	-10.8256
▁dogs	-10.8258
zz	-10.826
scale	-10.8267
▁vessel	-10.8267
▁bible	-10.827
▁admiral	-10.8277
▁waves	-10.829
▁wished	-10.8292
▁barn	-10.8292
▁monster	-10.8301
▁malaysia	-10.8302
▁processes	-10.8307
ero	-10.8311
▁1909	-10.8312
▁personality	-10.8315
ple	-10.8318
▁paint	-10.8319
▁timber	-10.8319
▁josh	-10.8319
▁classified	-10.8324
▁achievement	-10.8327
▁jar	-10.8328
1992	-10.8333
▁holiday	-10.8335
▁electoral	-10.8337
▁logan	-10.8338
▁rivers	-10.8349
▁indonesia	-10.8356
place	-10.8357
▁gra	-10.836
▁feels	-10.836
▁ob	-10.8361
▁sentence	-10.8361
▁connecticut	-10.8364
▁agents	-10.8368
▁belonged	-10.8371
ug	-10.8372
game	-10.8374
▁abuse	-10.8376
mit	-10.8376
▁couples	-10.8377
▁manual	-10.8378
ges	-10.8379
▁seed	-10.8379
▁52	-10.8381
▁regime	-10.8382
▁vincent	-10.8382
maybe	-10.8384
▁totally	-10.8397
▁intention	-10.8398
▁oliver	-10.8399
▁whereas	-10.8399
▁illegal	-10.8401
▁ta	-10.8403
br	-10.8403
mat	-10.8405
▁1926	-10.8405
▁eighth	-10.8407
▁proposal	-10.841
▁barry	-10.8412
▁widow	-10.8413
▁authors	-10.8413
▁initiative	-10.8414
▁considering	-10.8416
▁1904	-10.8419
▁por	-10.842
5,000	-10.842
▁charts	-10.8422
▁donald	-10.8424
▁worship	-10.8425
▁evans	-10.8426
after	-10.8427
▁roots	-10.843
▁leaf	-10.8431
ade	-10.8431
ati	-10.8432
▁button	-10.8443
▁pc	-10.8444
▁murray	-10.8446
▁stare	-10.8448
mor	-10.8451
▁gonna	-10.8451
▁hol	-10.8452
▁experimental	-10.8454
rid	-10.8456
▁silk	-10.8461
▁worn	-10.8461
▁popularity	-10.8463
▁kra	-10.8463
ei	-10.8465
▁1880	-10.8466
▁harm	-10.8469
act	-10.847
▁constitutional	-10.8473
▁nicholas	-10.8474
▁careful	-10.8477
▁minimum	-10.8478
▁flows	-10.8479
mr	-10.848
▁mood	-10.8483
▁kon	-10.8483
▁gut	-10.8486
aga	-10.8486
▁restoration	-10.8487
▁hurricane	-10.8492
▁output	-10.8494
▁parker	-10.8495
▁blocks	-10.8495
book	-10.8496
▁tam	-10.8503
▁attracted	-10.8508
▁1916	-10.8511
▁destruction	-10.8512
▁depth	-10.8519
▁trading	-10.8524
▁deeply	-10.8525
ona	-10.8527
▁marc	-10.8529
1980	-10.8533
▁dated	-10.8536
▁cotton	-10.8541
▁qualifying	-10.8543
▁transmission	-10.8544
av	-10.8546
▁decline	-10.8546
▁1997,	-10.8549
▁slave	-10.8553
▁muttered	-10.8555
▁sheriff	-10.8558
▁emily	-10.856
ever	-10.8564
▁corridor	-10.8565
fm	-10.8566
▁meets	-10.8568
▁shrugged	-10.8569
▁aim	-10.8576
▁elder	-10.8582
▁archbishop	-10.8582
▁harder	-10.8586
▁finals	-10.8592
▁immediate	-10.8592
▁novels	-10.8596
▁pole	-10.8596
▁transit	-10.8604
2017	-10.8608
▁51	-10.8609
▁defeating	-10.8612
band	-10.8613
▁demanded	-10.8615
▁baltimore	-10.8615
▁influential	-10.8615
▁practices	-10.8625
▁disney	-10.8625
ima	-10.8625
▁coverage	-10.8626
▁seeking	-10.8628
heim	-10.8629
▁bon	-10.8631
tti	-10.8635
mas	-10.8636
▁admit	-10.8637
▁mate	-10.8645
stra	-10.8646
▁jurisdiction	-10.8648
▁jerry	-10.8651
rt	-10.8651
aria	-10.8653
▁stick	-10.8656
tier	-10.8656
▁celebrated	-10.8657
▁symphony	-10.8661
▁cream	-10.8662
▁filed	-10.8665
▁springs	-10.8666
▁denied	-10.8671
▁wil	-10.8677
▁1915	-10.8677
▁colors	-10.8678
▁forests	-10.8683
▁adventure	-10.8684
avi	-10.8684
▁jury	-10.869
▁patrol	-10.8693
▁muscle	-10.8695
▁claire	-10.8699
▁commanded	-10.8702
▁lifetime	-10.8704
▁tons	-10.8705
▁customers	-10.8708
▁criticized	-10.8712
mate	-10.8713
▁infrastructure	-10.8713
▁guinea	-10.8718
ral	-10.8721
▁hated	-10.8724
▁formally	-10.8725
cio	-10.8726
▁liverpool	-10.8726
▁amazing	-10.8726
dor	-10.8727
▁mars	-10.8731
▁mitchell	-10.8732
▁loop	-10.8737
tie	-10.874
▁comfort	-10.8747
▁profile	-10.8748
▁kara	-10.8753
▁1923	-10.8755
▁surviving	-10.8756
▁mai	-10.8757
▁hp	-10.8758
▁disaster	-10.8758
▁danny	-10.8759
▁nazi	-10.8759
▁gradually	-10.8763
▁indigenous	-10.8765
▁knock	-10.8766
▁twisted	-10.8766
box	-10.8767
▁accounts	-10.8767
▁gross	-10.8767
ique	-10.8769
▁diamond	-10.8773
▁hiding	-10.8776
▁absence	-10.8777
cl	-10.8782
▁printed	-10.8783
▁description	-10.8784
▁breakfast	-10.8786
▁eating	-10.8789
▁resident	-10.879
▁vampires	-10.8793
▁bobby	-10.8794
▁mills	-10.8794
▁fifa	-10.8797
▁cop	-10.8798
▁shadows	-10.8799
▁frequency	-10.88
▁convinced	-10.8802
▁55	-10.8806
shan	-10.8811
▁rates	-10.8817
▁voices	-10.8818
▁angle	-10.8819
olo	-10.8819
▁passion	-10.882
▁sebastian	-10.8822
▁romania	-10.8829
▁intense	-10.8831
▁exact	-10.8833
▁$3	-10.8836
hol	-10.8841
▁lasted	-10.8842
hold	-10.8845
▁fool	-10.8847
▁nova	-10.8849
hop	-10.885
▁teach	-10.8851
▁1901	-10.886
▁architectural	-10.8862
▁intersection	-10.8862
boy	-10.8863
▁tin	-10.8867
▁ukrainian	-10.8872
▁driven	-10.8873
▁duo	-10.8873
▁reporter	-10.8874
bri	-10.8876
hole	-10.8876
▁lift	-10.8879
1991	-10.8879
▁keyboards	-10.8881
▁mason	-10.8881
▁pride	-10.8883
▁ren	-10.8884
bank	-10.8884
▁stan	-10.8886
▁injuries	-10.8886
▁wouldnt	-10.8887
ches	-10.8892
▁pittsburgh	-10.8899
▁modified	-10.8903
▁cam	-10.8904
▁mont	-10.8904
▁stronger	-10.8904
▁hon	-10.8905
ore	-10.8906
▁cutting	-10.8907
▁engineers	-10.8908
1989	-10.8909
▁expensive	-10.8911
▁losses	-10.8912
▁flower	-10.8917
▁stress	-10.892
▁layer	-10.8923
uff	-10.8923
▁egyptian	-10.8924
▁remote	-10.8926
▁ger	-10.8927
▁expert	-10.8931
▁exception	-10.8933
▁completion	-10.8935
▁monastery	-10.8935
▁den	-10.8936
▁noble	-10.8937
▁pr	-10.895
▁hosts	-10.8952
▁hungary	-10.8959
▁pierre	-10.8961
▁buck	-10.8969
▁1902	-10.897
▁acoustic	-10.8971
▁scholarship	-10.8971
▁assist	-10.8979
▁1996,	-10.898
▁markets	-10.8981
▁select	-10.8985
▁frequent	-10.8989
▁escaped	-10.8989
mic	-10.8991
▁vessels	-10.8995
▁killer	-10.8996
▁brad	-10.8998
▁aimed	-10.8998
▁dollars	-10.8999
▁hammer	-10.8999
row	-10.9004
qua	-10.9005
▁luck	-10.9006
▁imp	-10.9006
▁premiere	-10.9006
▁radical	-10.9008
▁julia	-10.9012
▁ignored	-10.9016
▁nurse	-10.9017
▁naked	-10.9018
▁chemistry	-10.9018
▁stra	-10.9022
▁cord	-10.9023
▁benjamin	-10.9023
eg	-10.9023
▁scientists	-10.9024
char	-10.9025
▁occasion	-10.9026
▁territories	-10.9027
gel	-10.903
▁kicked	-10.9031
play	-10.9032
▁honey	-10.9034
▁margin	-10.9038
▁declined	-10.9039
▁representation	-10.9041
▁hyper	-10.9042
kel	-10.9046
▁pearl	-10.9047
ars	-10.9048
gs	-10.9054
ami	-10.9055
gio	-10.9056
feld	-10.9058
▁filmed	-10.9058
▁rabbi	-10.9061
rc	-10.9062
▁funeral	-10.9064
▁weird	-10.9065
▁bears	-10.9065
▁moral	-10.9073
▁scar	-10.9074
▁habitat	-10.9085
▁discussion	-10.9087
▁creature	-10.9087
▁devil	-10.9089
▁effectively	-10.909
▁1903	-10.9093
▁definition	-10.9093
▁tai	-10.9095
▁broadway	-10.9095
▁monte	-10.9095
▁hop	-10.9101
▁pie	-10.9103
▁departure	-10.9104
▁hallway	-10.9106
▁tape	-10.9108
god	-10.9112
▁peru	-10.9112
▁argument	-10.9113
▁random	-10.9115
lp	-10.9115
▁signing	-10.9117
▁tend	-10.9117
▁ladies	-10.9121
cer	-10.9122
abad	-10.9124
power	-10.9129
black	-10.9131
▁ci	-10.9131
rate	-10.9132
▁greg	-10.9132
▁ivan	-10.9136
▁innocent	-10.9139
dell	-10.9141
▁violin	-10.9142
▁manor	-10.9145
▁merely	-10.9147
qu	-10.9147
▁replacing	-10.9149
▁arrangement	-10.9149
vers	-10.9149
▁fist	-10.9152
▁craig	-10.9153
▁drag	-10.9155
▁bun	-10.9158
▁equipped	-10.9158
▁copper	-10.9161
▁climbed	-10.9162
▁flood	-10.9164
▁1913	-10.9166
▁victim	-10.9166
sti	-10.917
▁guardian	-10.9171
▁processing	-10.9173
▁bro	-10.9176
▁experiences	-10.9178
▁trick	-10.918
▁sculpture	-10.9185
▁guests	-10.9192
ali	-10.9192
▁fortune	-10.9192
▁divisions	-10.9193
▁ages	-10.9195
▁switch	-10.9196
▁instrumental	-10.9196
▁fled	-10.9196
▁trio	-10.9197
▁cited	-10.9197
▁tap	-10.9198
▁sh	-10.9198
▁cock	-10.9201
▁instrument	-10.9202
▁penalty	-10.9204
▁happens	-10.9204
uf	-10.9206
away	-10.9207
▁keys	-10.9207
ele	-10.9209
▁birmingham	-10.9215
▁bernard	-10.9218
▁alcohol	-10.9219
▁reaches	-10.9222
▁networks	-10.9223
▁purple	-10.9223
▁hull	-10.9224
▁collect	-10.9226
▁hugh	-10.9227
▁obtain	-10.9228
▁progressive	-10.9234
▁integrated	-10.9238
▁portrait	-10.9239
chen	-10.9242
▁dozen	-10.9247
hir	-10.9248
▁barbara	-10.925
▁revolutionary	-10.9251
horn	-10.9252
dom	-10.9252
minute	-10.9253
▁executed	-10.9253
▁whit	-10.9255
▁hook	-10.9256
▁1870	-10.9256
▁violent	-10.9259
▁forgotten	-10.9261
▁knocked	-10.9268
ille	-10.927
▁trace	-10.927
bon	-10.9271
log	-10.9272
▁ive	-10.9277
acre	-10.9281
▁cargo	-10.9285
south	-10.9287
▁permission	-10.9291
▁newspapers	-10.9304
pping	-10.9305
▁welcome	-10.9306
pm	-10.9307
▁commerce	-10.9307
anti	-10.9309
▁$	-10.931
will	-10.9312
▁beam	-10.9314
space	-10.9314
org	-10.9315
▁bri	-10.9315
▁trap	-10.9317
▁mystery	-10.9319
▁swing	-10.9323
inch	-10.9324
▁defend	-10.9324
▁distant	-10.9326
▁beast	-10.9326
▁electricity	-10.933
▁warriors	-10.9331
sol	-10.9333
▁jeans	-10.9335
▁gates	-10.9341
▁alien	-10.9341
og	-10.9344
▁volunteer	-10.9348
▁telephone	-10.9349
▁suggest	-10.935
▁nomination	-10.9351
making	-10.9353
▁gre	-10.9354
▁contribution	-10.9355
▁girlfriend	-10.9359
▁tool	-10.9363
hy	-10.9363
ean	-10.9363
▁seth	-10.9365
▁clinical	-10.9366
▁repair	-10.9369
▁finland	-10.9373
▁boats	-10.9379
cle	-10.938
▁managing	-10.9382
fin	-10.9388
▁nest	-10.9389
mun	-10.939
▁advertising	-10.9393
▁controversial	-10.9393
▁pants	-10.9394
▁encouraged	-10.9394
▁principles	-10.9398
▁participation	-10.9399
▁characteristics	-10.94
▁jin	-10.9401
▁ideal	-10.9403
▁greatly	-10.9404
eur	-10.9414
▁segment	-10.9416
nell	-10.9416
tum	-10.9419
▁victorian	-10.9423
mile	-10.9423
▁exists	-10.9423
▁meetings	-10.9425
▁brooklyn	-10.9427
lot	-10.9427
▁revenue	-10.9428
▁xi	-10.9429
three	-10.9431
▁mistake	-10.9439
▁farmers	-10.9444
▁apply	-10.9444
▁longest	-10.9444
▁siege	-10.9445
od	-10.9446
▁competing	-10.9447
▁spider	-10.9449
▁thailand	-10.9452
nz	-10.9453
▁cried	-10.9455
▁gentle	-10.9456
fully	-10.9458
▁operational	-10.9462
▁bold	-10.9463
▁elite	-10.9465
▁gran	-10.9466
fall	-10.9468
ui	-10.9468
▁catherine	-10.9473
?'	-10.9474
▁rarely	-10.9477
▁steady	-10.9478
▁outdoor	-10.9481
▁gill	-10.9483
ock	-10.9485
▁possession	-10.9489
▁controversy	-10.9491
▁justin	-10.9493
ado	-10.9494
▁athletics	-10.9497
▁extent	-10.9503
▁affair	-10.9503
▁bet	-10.9506
▁confusion	-10.9507
▁pitch	-10.9509
▁involvement	-10.9512
▁evolution	-10.9512
▁diameter	-10.9519
▁youngest	-10.9519
▁friendship	-10.952
▁lloyd	-10.9521
yne	-10.9522
▁concentration	-10.9524
▁47	-10.9527
▁annually	-10.9528
▁bench	-10.9531
▁shelter	-10.9533
▁forum	-10.9534
▁suspended	-10.9535
▁uefa	-10.9535
▁corn	-10.9538
▁grove	-10.9538
▁skull	-10.9539
▁shouted	-10.9543
▁raising	-10.9543
▁opportunities	-10.9547
▁figured	-10.9548
▁1995,	-10.9555
▁hispanic	-10.9559
nin	-10.9567
▁venue	-10.9568
▁alpha	-10.9571
▁versus	-10.9574
▁competitive	-10.9579
▁bonus	-10.9579
oon	-10.9581
▁thunder	-10.9581
▁raj	-10.9583
▁wondering	-10.9586
▁practical	-10.9589
▁shouldn	-10.9589
▁nevertheless	-10.9596
▁ruling	-10.9599
▁sample	-10.96
▁asleep	-10.9608
nk	-10.9609
▁tribes	-10.9615
▁collections	-10.9617
▁witch	-10.962
▁prepare	-10.9624
▁terry	-10.9626
▁staying	-10.9626
▁peaked	-10.9629
pl	-10.9633
▁shu	-10.9636
uda	-10.9638
▁badly	-10.9641
▁dennis	-10.9641
bia	-10.9642
▁comfortable	-10.9647
▁jail	-10.9652
eta	-10.9654
▁latest	-10.9656
▁experiment	-10.9657
▁rico	-10.9657
list	-10.9659
▁technologies	-10.9659
rio	-10.9661
▁canon	-10.9662
▁enemies	-10.9663
▁portland	-10.9664
▁monday	-10.9665
▁dealing	-10.9668
▁dual	-10.9668
▁credits	-10.9672
▁reed	-10.9673
▁pas	-10.9675
▁intellectual	-10.9677
▁treat	-10.968
aba	-10.9685
▁zane	-10.9687
▁sergeant	-10.9691
▁ensemble	-10.9696
ions	-10.9699
▁larry	-10.9701
▁perfectly	-10.9702
▁pursue	-10.9703
▁steven	-10.9704
▁hindu	-10.9707
▁sessions	-10.9714
▁explanation	-10.9715
▁belief	-10.9715
▁ky	-10.9716
▁marcus	-10.972
ily	-10.9726
▁execution	-10.9727
eu	-10.9728
vor	-10.973
shirt	-10.9731
▁recommended	-10.9734
▁costa	-10.9735
▁kai	-10.9736
▁ralph	-10.9737
▁thrust	-10.9738
rn	-10.974
pc	-10.974
▁percentage	-10.9742
made	-10.975
cat	-10.9751
▁drivers	-10.9751
▁animated	-10.9763
▁agencies	-10.9764
▁kil	-10.9764
▁suppose	-10.9764
city	-10.9768
▁harrison	-10.9771
▁civilian	-10.9774
▁scream	-10.9774
▁searching	-10.9778
▁lodge	-10.9783
▁partly	-10.9783
▁occasions	-10.9785
▁hence	-10.9786
rac	-10.9788
▁milan	-10.979
▁sho	-10.9794
▁benefits	-10.9798
zel	-10.9798
▁cent	-10.98
▁terrible	-10.9801
▁bite	-10.9802
▁blast	-10.9803
▁1898	-10.9808
▁eagle	-10.9808
▁identify	-10.9809
▁wy	-10.9809
look	-10.9811
▁nba	-10.9815
▁carrier	-10.9815
▁muscles	-10.9817
▁hub	-10.9818
have	-10.9819
▁custom	-10.9822
▁lowered	-10.9823
▁statistics	-10.9826
▁missions	-10.9835
▁richmond	-10.9835
▁eggs	-10.9836
▁gathering	-10.9836
▁graduating	-10.9837
chinese	-10.984
▁tiger	-10.9843
▁mixing	-10.9844
▁relation	-10.9845
arm	-10.9846
▁1994,	-10.9847
▁hips	-10.9854
gin	-10.9856
▁essential	-10.9857
▁relationships	-10.986
▁legion	-10.9861
ske	-10.9867
▁producers	-10.9867
▁laura	-10.9869
sure	-10.9869
▁rounds	-10.9871
try	-10.9876
▁utah	-10.9876
▁stones	-10.9878
▁similarly	-10.9881
▁recognize	-10.9883
xi	-10.9884
kha	-10.9886
vol	-10.9887
▁merit	-10.9888
▁dirt	-10.9888
▁taiwan	-10.9891
tain	-10.9891
▁doorway	-10.9894
▁debt	-10.9894
▁ok	-10.9895
▁informed	-10.99
▁warrior	-10.9903
▁abroad	-10.9904
mis	-10.9906
▁continental	-10.991
▁acquisition	-10.9912
▁placing	-10.9915
▁islam	-10.9917
▁recovered	-10.9918
chy	-10.992
▁claiming	-10.9925
tle	-10.9927
▁suspected	-10.993
▁competitions	-10.9933
▁biological	-10.9934
▁neil	-10.9934
▁breast	-10.9936
▁donated	-10.9939
▁tale	-10.9939
▁remainder	-10.9948
▁warner	-10.9949
▁cooperation	-10.995
▁mir	-10.9951
▁borders	-10.9955
▁deliver	-10.9956
▁voting	-10.9957
▁retail	-10.9959
▁forth	-10.996
▁behalf	-10.9961
▁nan	-10.9962
▁researchers	-10.9967
▁doesnt	-10.9969
▁limits	-10.9977
profit	-10.9981
▁participants	-10.9982
press	-10.9984
▁deeper	-10.9988
▁sank	-10.9989
bie	-10.999
▁boots	-10.999
▁reduction	-10.9992
▁54	-10.9993
▁principle	-11.0002
▁tear	-11.0002
▁ian	-11.0009
▁root	-11.001
▁ferry	-11.0011
▁rushed	-11.0011
vy	-11.0012
thank	-11.0015
hn	-11.0017
▁indoor	-11.0021
ious	-11.0021
▁nobody	-11.0022
met	-11.0023
#	-11.0023
▁emotions	-11.0025
▁component	-11.0025
▁cass	-11.0026
▁ber	-11.0032
▁buffalo	-11.0034
▁publisher	-11.0035
▁arkansas	-11.0036
▁portrayed	-11.0037
▁bangladesh	-11.0039
▁explosion	-11.0039
sville	-11.0039
▁drunk	-11.004
▁perry	-11.0045
table	-11.0046
▁1,000	-11.0047
▁jerusalem	-11.0049
▁63	-11.0053
live	-11.0055
fire	-11.0056
1988	-11.0061
▁citizen	-11.0061
rr	-11.0062
▁partially	-11.0064
▁wonderful	-11.0067
▁exercise	-11.0072
▁collins	-11.0072
▁dim	-11.0073
▁sacred	-11.0075
▁leaning	-11.0076
▁valuable	-11.0081
▁ab	-11.0085
lov	-11.0086
▁hardly	-11.0086
▁proud	-11.0086
▁shares	-11.0087
ration	-11.009
▁chile	-11.009
▁tension	-11.0091
cas	-11.0094
ans	-11.0095
▁pregnant	-11.0098
▁bas	-11.0099
▁grim	-11.01
eau	-11.0106
▁supporters	-11.0106
▁serial	-11.0107
▁mega	-11.0109
ants	-11.0109
▁gmina	-11.0111
▁businessman	-11.0111
▁drummer	-11.0112
mur	-11.0113
▁bou	-11.0113
▁turner	-11.0114
▁alleged	-11.0118
▁orbit	-11.0118
▁cardinal	-11.0119
▁concerts	-11.0122
▁tourism	-11.0122
mie	-11.0122
▁epi	-11.0123
pat	-11.0126
▁commented	-11.0131
▁descent	-11.0137
▁genre	-11.015
nus	-11.0151
▁excellent	-11.0151
▁withdrew	-11.0152
▁belonging	-11.0156
▁photographer	-11.0156
▁preferred	-11.0157
▁apparent	-11.0159
▁mask	-11.0159
▁bike	-11.0159
ori	-11.0161
▁keith	-11.0164
cott	-11.0164
▁bread	-11.0166
bad	-11.0166
▁discuss	-11.0167
sion	-11.0167
▁nbc	-11.017
▁pete	-11.0171
gia	-11.0172
oni	-11.0175
ema	-11.0176
▁mansion	-11.0179
▁venture	-11.018
▁delhi	-11.0182
500	-11.0183
any	-11.0184
▁enterprise	-11.0185
▁decisions	-11.0185
▁ninth	-11.0188
▁glasgow	-11.0188
▁sweat	-11.019
▁fuck	-11.019
▁assessment	-11.0194
▁tommy	-11.0195
▁delivery	-11.0196
hard	-11.0198
▁wal	-11.02
lip	-11.0201
▁phoenix	-11.0201
tom	-11.0203
▁colin	-11.0205
▁kirk	-11.0205
▁database	-11.0207
1987	-11.0208
▁chorus	-11.0208
iff	-11.0209
▁operator	-11.0209
▁lion	-11.0209
english	-11.0212
▁widespread	-11.0217
▁elevator	-11.0219
▁thrown	-11.0223
▁fi	-11.0223
▁120	-11.0224
▁package	-11.0225
ash	-11.0228
▁terror	-11.023
▁throwing	-11.023
▁fr	-11.0232
▁machines	-11.0235
▁detailed	-11.0236
cre	-11.0238
▁belgian	-11.0238
▁1899	-11.024
▁elsewhere	-11.024
▁reminded	-11.0241
▁rec	-11.0243
ato	-11.0244
▁saints	-11.0246
▁thereafter	-11.0246
▁sink	-11.025
brook	-11.025
ila	-11.0252
ill	-11.0253
▁comparison	-11.0256
wall	-11.0256
ters	-11.0257
▁stern	-11.0257
▁posted	-11.0258
ora	-11.0259
▁beth	-11.026
pop	-11.0263
▁crack	-11.0266
▁grain	-11.0268
▁photographs	-11.0269
▁opponent	-11.027
▁bars	-11.0275
▁syn	-11.0276
▁instantly	-11.0276
▁sul	-11.0277
▁dug	-11.0279
▁fee	-11.0279
▁fed	-11.028
ole	-11.0282
▁proof	-11.0284
ological	-11.0286
▁judges	-11.0287
▁expand	-11.0289
▁adrian	-11.029
hood	-11.0291
▁struggled	-11.0292
hen	-11.0296
▁discussed	-11.0297
▁fictional	-11.0301
▁settle	-11.0302
▁tribute	-11.0302
▁amy	-11.0303
▁grinned	-11.0304
▁viewed	-11.0304
▁folded	-11.0304
▁mari	-11.0305
▁yorkshire	-11.0311
winning	-11.0311
▁compound	-11.0315
▁emotional	-11.0317
▁wang	-11.0319
formerly	-11.0322
bas	-11.0323
iva	-11.0326
ets	-11.0329
▁pounds	-11.0333
▁sultan	-11.0333
▁fix	-11.0337
▁conclusion	-11.0338
ste	-11.0341
sam	-11.0343
ras	-11.0348
▁murdered	-11.035
▁ordinary	-11.0352
ase	-11.0353
sta	-11.0355
▁bloody	-11.0355
▁overseas	-11.0356
lc	-11.0358
▁detail	-11.0362
ovic	-11.0363
▁medals	-11.0363
nick	-11.0363
stan	-11.0366
▁displayed	-11.0368
▁clerk	-11.037
oka	-11.037
▁lou	-11.0377
▁defending	-11.0388
▁dock	-11.039
▁dirty	-11.0393
▁chan	-11.0394
▁implementation	-11.0395
▁hood	-11.0396
▁sheet	-11.0398
▁sharing	-11.0399
▁volumes	-11.0399
▁whisper	-11.04
▁baptist	-11.0401
1986	-11.0402
▁dig	-11.0403
▁protestant	-11.0404
▁ticket	-11.0405
esh	-11.041
▁forcing	-11.0411
▁wildlife	-11.0412
eri	-11.0416
▁cbs	-11.0418
▁liberty	-11.0418
▁arrive	-11.042
▁wealth	-11.0423
tive	-11.0424
▁touring	-11.0425
▁wrist	-11.0426
▁tech	-11.0427
cast	-11.0428
▁rocky	-11.0433
▁skill	-11.0438
▁blame	-11.0439
▁1000	-11.0442
slav	-11.0444
1970	-11.0445
▁dramatic	-11.0448
▁vancouver	-11.0453
onia	-11.0456
wn	-11.0457
bor	-11.0462
▁scout	-11.0463
▁traditionally	-11.0465
▁suite	-11.0467
▁tough	-11.0471
▁pond	-11.0471
▁faint	-11.0478
▁ceased	-11.0481
▁witness	-11.0483
▁indians	-11.0485
▁1860	-11.0485
▁chess	-11.0485
nas	-11.0491
▁1993,	-11.0491
▁56	-11.0495
▁fabric	-11.0495
▁cer	-11.0498
ace	-11.0499
nce	-11.0504
▁todd	-11.0504
fr	-11.0506
▁lan	-11.0509
▁editions	-11.051
▁inspiration	-11.0511
▁pulse	-11.0514
▁psychology	-11.0517
▁1895	-11.052
▁erected	-11.0527
▁substantial	-11.0532
▁cr	-11.0533
▁stuart	-11.0535
▁aaron	-11.0538
▁parade	-11.0539
▁preserved	-11.054
▁muhammad	-11.0544
▁bengal	-11.0545
▁ch	-11.0553
chief	-11.0554
▁hudson	-11.0558
▁bend	-11.0561
▁bigger	-11.0561
▁boyfriend	-11.0561
vic	-11.0563
▁unfortunately	-11.0566
pass	-11.0568
▁voters	-11.0569
related	-11.0571
▁ballet	-11.0574
▁tur	-11.0576
▁cattle	-11.0576
▁53	-11.0576
▁1897	-11.0578
▁kn	-11.0579
▁crying	-11.0579
▁genetic	-11.0583
▁spencer	-11.0584
▁1896	-11.0585
▁lions	-11.0585
▁writes	-11.0586
bh	-11.0586
▁pioneer	-11.0589
▁convince	-11.059
▁belong	-11.0594
zan	-11.0596
▁harbour	-11.0597
▁nathan	-11.0598
▁assets	-11.0598
▁preserve	-11.0601
▁bore	-11.0605
uz	-11.0605
▁streak	-11.0607
▁romanian	-11.0609
▁regulations	-11.061
hur	-11.061
▁virus	-11.061
main	-11.0613
▁1992,	-11.0615
▁prayer	-11.0615
▁kam	-11.0616
▁animation	-11.062
▁attending	-11.0621
▁emphasis	-11.0623
ret	-11.0623
pet	-11.0624
▁cafe	-11.0626
▁garage	-11.0627
uli	-11.063
▁companion	-11.0634
▁affect	-11.0635
▁historically	-11.0637
lau	-11.064
tian	-11.0644
▁hampshire	-11.0647
▁fluid	-11.065
▁latino	-11.0653
ld	-11.0655
▁lakes	-11.0656
▁sel	-11.0657
▁allies	-11.0659
▁bug	-11.0662
▁cage	-11.0663
link	-11.0667
▁certificate	-11.0668
▁bristol	-11.067
ched	-11.0671
▁radar	-11.0672
▁conversion	-11.0677
▁receiver	-11.0681
▁anchor	-11.0681
▁fri	-11.0683
▁lisa	-11.0685
eth	-11.0687
▁dur	-11.0695
▁attributed	-11.0695
▁links	-11.0701
▁murphy	-11.0702
▁tube	-11.0703
▁lily	-11.0706
▁screamed	-11.0707
▁earn	-11.0708
▁alaska	-11.071
▁devon	-11.0711
▁hum	-11.0712
inter	-11.0712
ao	-11.0713
▁patterns	-11.0714
▁rage	-11.0717
▁grandmother	-11.0723
▁nat	-11.0723
ening	-11.0725
bl	-11.0726
ien	-11.0731
▁span	-11.0731
▁afghanistan	-11.0734
▁residing	-11.0736
1985	-11.0738
▁lanka	-11.0738
▁lin	-11.0742
gram	-11.0743
▁crimes	-11.0745
▁discover	-11.0746
aya	-11.0748
▁revenge	-11.0754
jar	-11.0754
▁centers	-11.0758
cing	-11.076
anna	-11.0761
▁ol	-11.0763
▁load	-11.0764
central	-11.0764
▁madrid	-11.0766
▁zu	-11.0766
▁ranks	-11.0767
▁rip	-11.077
▁viewers	-11.077
▁def	-11.0771
▁ruth	-11.0775
▁attempting	-11.0776
▁voivodeship	-11.0777
▁patent	-11.0779
▁il	-11.0781
▁traded	-11.0781
ened	-11.0782
▁clinton	-11.0783
▁sixteen	-11.0784
▁instant	-11.0784
▁identical	-11.0786
cd	-11.0792
length	-11.0794
ox	-11.0797
▁murmured	-11.0798
▁channels	-11.0799
▁pub	-11.0799
▁mah	-11.0799
▁isolated	-11.0801
▁sung	-11.0802
sburg	-11.0802
▁backed	-11.0802
uc	-11.0806
num	-11.0808
▁maine	-11.0808
▁porch	-11.0809
▁hawaii	-11.0811
▁lucy	-11.0812
▁atmosphere	-11.0814
▁favour	-11.0814
▁sponsored	-11.0816
▁democracy	-11.0816
ere	-11.0816
▁kit	-11.0817
▁voiced	-11.0819
▁kol	-11.082
▁lean	-11.0822
▁wider	-11.0822
para	-11.0823
▁1:	-11.0825
sex	-11.0826
▁interrupted	-11.0827
▁breathe	-11.0828
ichi	-11.0832
▁continuous	-11.0833
▁snake	-11.0833
ites	-11.0834
▁chicken	-11.0837
▁boundaries	-11.0837
rl	-11.0837
▁stretch	-11.0844
▁presentation	-11.0845
▁demolished	-11.0846
say	-11.0849
▁input	-11.0849
▁options	-11.0849
▁prefer	-11.085
▁finn	-11.0851
▁globe	-11.0851
▁updated	-11.0852
▁midnight	-11.0852
wo	-11.0852
died	-11.0854
▁harold	-11.086
▁fundamental	-11.0863
▁ease	-11.0864
▁connect	-11.0865
▁tenure	-11.0865
▁texts	-11.0867
▁hint	-11.0872
▁1991,	-11.0872
tr	-11.0873
▁secured	-11.0874
▁rebellion	-11.0876
▁egg	-11.0878
▁thirteen	-11.0879
▁geo	-11.0881
written	-11.0882
int	-11.0883
▁licensed	-11.0885
▁desperate	-11.0886
▁impression	-11.0893
▁delta	-11.0894
uch	-11.0903
▁1893	-11.0903
▁engagement	-11.0903
▁kin	-11.0905
▁stretched	-11.0905
uma	-11.0906
▁dialogue	-11.0906
▁boom	-11.0907
ridge	-11.0907
▁fitted	-11.0908
▁manhattan	-11.0913
big	-11.0915
▁tro	-11.0915
▁romance	-11.0916
▁joan	-11.0919
▁vital	-11.0921
thy	-11.0922
face	-11.0922
▁mit	-11.0923
▁scientist	-11.0927
president	-11.0929
▁everywhere	-11.093
ture	-11.0931
▁sta	-11.0931
▁cart	-11.0932
▁maha	-11.0934
▁categories	-11.0941
wal	-11.0944
▁hydro	-11.0946
▁nod	-11.0953
▁arriving	-11.0955
▁trinity	-11.0955
moto	-11.0956
▁butler	-11.0957
ged	-11.0957
▁finnish	-11.0958
▁vegas	-11.0958
▁waved	-11.0958
zhou	-11.0958
▁electro	-11.0959
▁trunk	-11.096
▁tender	-11.0961
▁furthermore	-11.0962
▁$2	-11.0963
▁connecting	-11.0966
gli	-11.0967
▁slight	-11.0969
▁styles	-11.097
month	-11.097
▁suitable	-11.0972
▁dismissed	-11.0976
▁soap	-11.0976
py	-11.0977
▁logo	-11.0978
▁parks	-11.098
▁hms	-11.0982
▁reservoir	-11.0983
▁tang	-11.0983
rey	-11.0985
▁cameron	-11.0988
▁democrat	-11.0993
▁awareness	-11.0994
▁carol	-11.0998
▁ranch	-11.1001
▁monthly	-11.1005
▁consumer	-11.1007
▁herbert	-11.1009
▁blank	-11.101
▁slide	-11.1011
▁rebuilt	-11.1011
maker	-11.1014
▁argue	-11.1016
▁punishment	-11.1016
fort	-11.1017
ido	-11.1017
▁autumn	-11.1018
▁nights	-11.1019
▁derby	-11.102
▁trials	-11.1021
▁indicates	-11.1022
▁slaves	-11.1023
▁concerning	-11.1028
rina	-11.1029
▁comp	-11.1033
▁minority	-11.1034
▁settlers	-11.1035
has	-11.1036
www	-11.1037
▁comment	-11.1037
▁sheep	-11.104
page	-11.104
▁relegated	-11.1041
▁files	-11.1045
▁quit	-11.1048
▁alarm	-11.105
▁isaac	-11.1051
▁mun	-11.1053
lands	-11.1053
▁swan	-11.1053
▁tales	-11.1053
uh	-11.1058
▁marble	-11.1067
ense	-11.1067
▁contested	-11.1068
▁1889	-11.1068
wald	-11.1077
▁mediterranean	-11.1079
▁narrative	-11.1079
▁reply	-11.1082
▁checked	-11.1087
▁therapy	-11.1087
▁1892	-11.109
▁craft	-11.1091
▁bog	-11.1092
▁lover	-11.1092
▁wire	-11.1093
▁hug	-11.1093
▁chuck	-11.1098
western	-11.1099
▁1864	-11.11
oid	-11.1101
▁inspector	-11.1107
▁1885	-11.111
▁distinction	-11.1111
▁artwork	-11.1111
uro	-11.1112
▁neuro	-11.1114
▁tab	-11.1115
tech	-11.1119
mina	-11.1121
rod	-11.1123
▁laughter	-11.1126
▁shocked	-11.1129
▁collapse	-11.113
▁traveling	-11.1131
▁perspective	-11.1136
vel	-11.1141
▁conventional	-11.1142
▁mechanism	-11.1142
▁gospel	-11.1144
▁seal	-11.1144
▁gregory	-11.1144
rm	-11.1144
▁fellowship	-11.1145
▁gau	-11.1147
▁eldest	-11.115
▁nhl	-11.1151
▁lowest	-11.1152
▁57	-11.1153
▁fence	-11.1159
▁merger	-11.1164
nah	-11.1167
▁confidence	-11.1167
▁marvel	-11.1172
▁recovery	-11.1172
▁pile	-11.1173
▁gilbert	-11.1174
▁collective	-11.1178
late	-11.1181
▁earning	-11.1182
▁tightly	-11.1188
▁nearest	-11.1193
▁substitute	-11.1193
▁earthquake	-11.1195
sized	-11.1196
▁swallowed	-11.1197
▁dominated	-11.1198
▁regret	-11.12
▁wool	-11.1201
▁62	-11.1204
▁prisoner	-11.1204
ute	-11.1204
▁pla	-11.1204
▁involves	-11.1208
▁confederate	-11.1209
300	-11.1209
chin	-11.121
▁interface	-11.1211
▁wealthy	-11.1212
team	-11.1215
▁giants	-11.1216
▁resource	-11.1216
▁commitment	-11.1225
▁beijing	-11.1226
▁sao	-11.1227
▁cruise	-11.1228
▁bang	-11.1229
▁rangers	-11.123
▁kyle	-11.1235
▁duncan	-11.1237
▁suffer	-11.1239
▁exposure	-11.1241
▁nar	-11.1242
▁penn	-11.1243
▁provinces	-11.1244
▁endemic	-11.1245
▁volunteers	-11.1247
▁vo	-11.1247
▁frowned	-11.1251
piece	-11.1252
▁framework	-11.1252
▁1888	-11.1253
▁rocket	-11.1253
▁virtual	-11.1254
▁knights	-11.1255
ments	-11.1255
▁requested	-11.1257
agh	-11.1258
▁stops	-11.126
▁paying	-11.126
awa	-11.1262
▁illustrated	-11.1263
:10	-11.1264
▁terminus	-11.1268
▁videos	-11.1268
▁runners	-11.1269
▁ultimate	-11.1273
▁submarine	-11.1275
▁angels	-11.1279
▁chat	-11.1283
▁surrender	-11.1285
▁interchange	-11.1286
▁owen	-11.1289
▁insisted	-11.1289
march	-11.1291
▁ste	-11.1293
adi	-11.1293
▁rai	-11.1294
▁hadnt	-11.1295
▁conductor	-11.1295
▁furniture	-11.1296
▁1891	-11.1296
▁cloth	-11.1298
▁reportedly	-11.13
▁caribbean	-11.1301
▁dispute	-11.1301
nai	-11.1305
▁mul	-11.131
▁whenever	-11.1312
cul	-11.1312
▁1865	-11.1314
▁1894	-11.1315
▁armenian	-11.1316
rik	-11.1317
▁realm	-11.1317
ose	-11.1317
▁derek	-11.1319
▁bitch	-11.132
▁rubbed	-11.132
vent	-11.132
▁activist	-11.1321
▁fairly	-11.1321
card	-11.1323
sz	-11.1326
▁brook	-11.1326
ome	-11.1329
▁touching	-11.133
▁sentenced	-11.1333
▁prefecture	-11.1335
▁zoo	-11.1338
1984	-11.134
▁toured	-11.134
▁excuse	-11.1344
▁suburb	-11.1344
fel	-11.1348
▁dec	-11.1353
▁kilometers	-11.1355
▁arabic	-11.1356
▁$4	-11.1358
▁serbia	-11.1361
1983	-11.1366
▁switched	-11.1367
tc	-11.1368
▁celebration	-11.137
▁reporting	-11.137
▁recalled	-11.1371
▁sprint	-11.1373
▁pleasant	-11.1376
▁decides	-11.1377
▁preparation	-11.1377
▁warned	-11.1378
▁gla	-11.1378
▁spun	-11.1383
▁noah	-11.1388
▁locally	-11.1391
▁rid	-11.1392
nen	-11.1392
▁characterized	-11.1392
ologist	-11.1394
▁householder	-11.1396
pel	-11.1398
▁hitting	-11.14
▁swear	-11.1401
▁cannon	-11.1401
▁advisory	-11.1402
▁emotion	-11.1402
▁manuel	-11.1403
▁10,000	-11.1404
▁madison	-11.1405
▁ec	-11.1409
lle	-11.1411
▁1861	-11.1414
▁deployed	-11.1416
▁missile	-11.1416
▁produces	-11.1419
▁swept	-11.1419
gri	-11.142
▁flames	-11.1426
▁rag	-11.1426
▁innings	-11.1426
borg	-11.1428
▁tanks	-11.1431
speed	-11.1435
▁answers	-11.1437
▁adventures	-11.1437
cr	-11.1439
▁pitcher	-11.144
▁publicly	-11.1441
▁wise	-11.1441
▁automatic	-11.1446
▁canton	-11.1446
▁kissing	-11.1447
▁fighters	-11.1448
▁treasure	-11.1452
pal	-11.1454
▁advisor	-11.1454
▁sufficient	-11.1455
▁retreat	-11.1456
▁tourist	-11.1458
glo	-11.1467
▁funded	-11.1467
leg	-11.1469
▁cy	-11.1471
▁clinic	-11.1473
▁rang	-11.1475
▁regard	-11.1476
matic	-11.1476
▁creatures	-11.148
▁spike	-11.148
▁lightning	-11.148
▁pm	-11.1482
▁sailed	-11.1482
▁log	-11.1482
1982	-11.1489
▁fourteen	-11.1491
▁oscar	-11.1491
six	-11.1492
▁spine	-11.1502
please	-11.1504
▁linear	-11.1505
▁stolen	-11.1511
▁supports	-11.1513
▁ongoing	-11.1517
▁vale	-11.1521
▁anglo	-11.1522
▁affiliated	-11.1523
aff	-11.1523
▁exclusive	-11.1524
▁cliff	-11.1525
▁winds	-11.1525
▁generated	-11.1526
▁tel	-11.1531
▁1850	-11.1535
▁lp	-11.1535
▁connections	-11.1536
▁illness	-11.1538
▁statistical	-11.1541
une	-11.1541
▁kir	-11.1542
▁qualify	-11.1544
kal	-11.1544
ert	-11.1545
▁tune	-11.1546
▁punk	-11.1546
▁organised	-11.1549
▁pur	-11.1551
▁affiliate	-11.156
kins	-11.1564
▁250	-11.1565
hat	-11.1566
▁solutions	-11.1567
▁flu	-11.1568
hor	-11.1576
▁shaw	-11.1579
▁dropping	-11.158
▁intervention	-11.1582
▁volleyball	-11.1582
▁ibn	-11.1586
▁61	-11.159
udi	-11.1591
▁nephew	-11.1595
▁eighteen	-11.1596
stadt	-11.1596
▁1862	-11.1598
nagar	-11.1604
xa	-11.1606
▁lamp	-11.1607
▁abu	-11.1607
▁1989,	-11.1608
▁rosa	-11.161
▁leonard	-11.1611
▁tent	-11.1616
els	-11.1621
▁garrison	-11.1621
oriented	-11.1622
▁boot	-11.1623
▁vocalist	-11.1623
▁cra	-11.1625
▁das	-11.1627
▁eva	-11.1628
▁pupils	-11.163
▁implemented	-11.1631
▁beetle	-11.1631
▁artificial	-11.1631
▁pistol	-11.1631
▁jefferson	-11.1632
▁bullet	-11.1633
bot	-11.1638
▁establishing	-11.164
▁bud	-11.1643
▁serbian	-11.1647
mad	-11.1652
▁rope	-11.1653
▁client	-11.1654
▁reveal	-11.1655
▁spotted	-11.1659
▁relocated	-11.166
▁liz	-11.1661
cs	-11.1661
▁lance	-11.1662
organ	-11.1663
ison	-11.167
lag	-11.1671
▁1863	-11.1671
▁repeat	-11.168
▁romanized	-11.1681
▁pointing	-11.1682
▁sporting	-11.1684
▁holland	-11.1684
▁raja	-11.1685
here	-11.1686
▁shoved	-11.1686
▁oxygen	-11.1689
▁glow	-11.1689
mini	-11.1691
▁jesse	-11.1692
▁dia	-11.1692
▁platforms	-11.1693
▁spur	-11.1693
▁phrase	-11.1697
▁beck	-11.1697
▁raid	-11.1698
▁militia	-11.1699
stead	-11.1702
▁immigration	-11.1706
▁adelaide	-11.1709
green	-11.1711
▁diet	-11.1711
▁slammed	-11.1712
▁celebrate	-11.1713
▁devoted	-11.1713
woman	-11.1714
sea	-11.1718
▁interstate	-11.1718
▁graduation	-11.1719
▁demonstrated	-11.172
▁bastard	-11.1722
owned	-11.1723
lit	-11.1729
nam	-11.1731
ffer	-11.1733
▁maps	-11.1735
▁dal	-11.1735
▁completing	-11.1737
▁subsidiary	-11.1737
▁dominant	-11.1738
igh	-11.1738
▁raymond	-11.1742
▁iranian	-11.1742
▁monk	-11.1743
▁themes	-11.1743
▁snap	-11.1744
▁assisted	-11.1745
gre	-11.1746
llo	-11.1748
aj	-11.1749
▁hatch	-11.175
▁physician	-11.175
▁lets	-11.1755
▁ultra	-11.1756
▁guild	-11.1758
aa	-11.1758
▁simultaneously	-11.1759
▁intermediate	-11.1759
ain	-11.1762
▁amendment	-11.1764
▁nigeria	-11.1764
mac	-11.1765
great	-11.1766
▁sees	-11.1767
▁mysterious	-11.1769
nc	-11.177
▁cuba	-11.177
exp	-11.1777
▁initiated	-11.178
about	-11.1782
▁kur	-11.1785
://	-11.1788
▁roberts	-11.179
hon	-11.179
yi	-11.1791
▁reflect	-11.1791
▁fortress	-11.1791
cca	-11.1791
▁yelled	-11.1792
▁pause	-11.1792
▁enforcement	-11.1792
▁sail	-11.1795
▁76	-11.1797
▁goddess	-11.1797
▁absolutely	-11.1801
ef	-11.1801
▁designation	-11.1804
national	-11.1804
▁pier	-11.1807
dio	-11.1807
tas	-11.181
elo	-11.1812
▁rogers	-11.1813
▁immigrants	-11.1817
▁#	-11.182
gas	-11.1821
▁mines	-11.1821
handed	-11.1822
ester	-11.1827
zon	-11.1827
▁tyler	-11.1828
▁decorated	-11.1831
▁sandy	-11.1833
▁certified	-11.1835
▁intent	-11.1837
rov	-11.1838
vr	-11.184
▁believes	-11.184
▁stem	-11.1841
oa	-11.1844
league	-11.1844
▁bust	-11.1844
pri	-11.1845
▁crosses	-11.1848
▁congregation	-11.185
rous	-11.185
ual	-11.1852
▁literally	-11.1853
▁rally	-11.1857
▁diverse	-11.186
rp	-11.1861
▁relay	-11.1864
▁spa	-11.1866
▁municipalities	-11.1867
▁archaeological	-11.1868
▁hybrid	-11.1868
▁bombing	-11.1874
▁belly	-11.1876
▁construct	-11.1881
▁reception	-11.1883
post	-11.1886
▁mosque	-11.1888
▁honest	-11.1888
kawa	-11.1893
bol	-11.1895
▁difficulty	-11.1897
▁biology	-11.1897
1979	-11.1898
▁destination	-11.1898
▁pul	-11.1899
▁1990,	-11.1899
▁interpretation	-11.19
▁hamlet	-11.1901
▁tossed	-11.1902
▁organic	-11.1903
gus	-11.1904
▁transformation	-11.1906
gor	-11.1908
▁persian	-11.1908
tac	-11.191
▁farming	-11.191
▁philippine	-11.1913
▁improvement	-11.1915
▁dome	-11.1915
wel	-11.1916
▁drafted	-11.1917
▁spy	-11.1918
▁harsh	-11.1919
member	-11.1921
▁colombia	-11.1922
▁playoffs	-11.1923
▁closest	-11.1927
jack	-11.1928
▁doctors	-11.1931
▁jeremy	-11.1932
blue	-11.1934
▁sequel	-11.1935
▁torn	-11.1937
families	-11.1937
▁origins	-11.1939
▁ker	-11.1941
▁hed	-11.1941
▁procedure	-11.1945
rk	-11.1945
▁reverse	-11.1947
▁encounter	-11.1948
▁exclusively	-11.1949
▁abilities	-11.195
hot	-11.1952
bay	-11.1953
▁buddhist	-11.1956
▁munich	-11.1956
▁shops	-11.1958
hm	-11.1961
▁farmer	-11.1962
smith	-11.1963
▁tara	-11.1964
▁error	-11.1964
language	-11.1965
▁motorcycle	-11.1976
▁ji	-11.1979
1981	-11.1979
▁dare	-11.1979
▁flame	-11.198
▁duck	-11.198
▁sid	-11.1981
trans	-11.1981
▁garcia	-11.199
ick	-11.1992
▁fake	-11.1992
▁pradesh	-11.1994
▁1887	-11.1995
▁belongs	-11.1997
▁vertical	-11.1999
▁calendar	-11.1999
▁reflected	-11.2
▁objective	-11.2
▁voyage	-11.2001
▁5:	-11.2003
▁comprehensive	-11.2005
▁arnold	-11.2005
▁edwards	-11.2007
▁skirt	-11.2008
▁attitude	-11.2008
▁mathematical	-11.201
▁pedro	-11.201
▁stopping	-11.201
▁capita	-11.2011
▁kenya	-11.2012
▁alt	-11.2012
▁neu	-11.2012
▁relieved	-11.2017
iri	-11.2017
1960	-11.2018
▁trent	-11.2019
human	-11.2019
▁cruz	-11.2019
▁impressed	-11.202
ota	-11.202
fc	-11.2022
▁plenty	-11.2025
▁prototype	-11.2025
▁photos	-11.2028
hang	-11.203
▁amsterdam	-11.2033
eva	-11.2035
▁visa	-11.2036
▁divine	-11.2039
▁absolute	-11.204
▁welfare	-11.2041
▁dakota	-11.2041
▁releases	-11.2047
vid	-11.2047
▁filming	-11.2048
mos	-11.2049
▁ruler	-11.205
▁blu	-11.205
▁restricted	-11.2051
▁stroke	-11.2052
pea	-11.2052
▁reveals	-11.2054
▁maj	-11.2055
▁heroes	-11.2056
▁logic	-11.2057
▁swung	-11.2059
▁riley	-11.206
▁julie	-11.2064
▁cottage	-11.2067
▁stakes	-11.2068
blo	-11.2069
▁airlines	-11.2069
▁screaming	-11.2073
▁manufacturer	-11.2074
▁trump	-11.2074
▁og	-11.2075
▁mil	-11.2076
▁declaration	-11.2077
▁microsoft	-11.2077
uta	-11.2079
▁curve	-11.2079
▁rein	-11.2081
▁py	-11.2085
▁increases	-11.2086
▁internationally	-11.2088
▁arrangements	-11.2088
▁traditions	-11.209
▁survival	-11.209
▁stake	-11.2093
▁burns	-11.2097
▁recall	-11.2097
▁housed	-11.2099
▁bart	-11.2102
400	-11.2103
▁spots	-11.2104
▁undergraduate	-11.2104
tone	-11.2106
▁chocolate	-11.2106
▁specialized	-11.2106
▁grows	-11.2107
▁download	-11.2108
▁crow	-11.2114
▁carr	-11.2116
▁yesterday	-11.2116
▁vest	-11.2117
▁sensation	-11.2121
wr	-11.2124
▁altitude	-11.2125
▁manufactured	-11.2126
▁pleased	-11.2126
▁qua	-11.2127
▁slept	-11.2128
rol	-11.2129
▁lighting	-11.213
▁enormous	-11.2135
▁vas	-11.2135
▁lt	-11.2136
elected	-11.2137
▁firing	-11.2138
ovich	-11.2139
lton	-11.2139
arian	-11.214
▁1881	-11.2142
▁curse	-11.2143
▁incumbent	-11.2145
▁coins	-11.2148
ux	-11.2149
▁regardless	-11.2149
uga	-11.2158
aud	-11.2158
▁buses	-11.2159
▁balls	-11.2162
▁describing	-11.2164
1976	-11.2166
▁focuses	-11.2166
▁inaugural	-11.2166
▁nickname	-11.2166
▁assume	-11.2168
ory	-11.217
▁measured	-11.2173
▁heights	-11.2174
▁accommodate	-11.2177
▁recognised	-11.218
▁lau	-11.2182
uncredited	-11.2183
▁railways	-11.2184
▁cas	-11.2184
▁tigers	-11.2186
▁outbreak	-11.2187
▁underneath	-11.2187
ther	-11.2191
▁ras	-11.2193
▁denver	-11.2194
▁ignore	-11.2195
▁gig	-11.2196
▁sol	-11.2196
court	-11.2198
▁excited	-11.2198
▁inherited	-11.2202
▁harvey	-11.2206
▁mixture	-11.2206
▁observation	-11.2208
▁rider	-11.221
▁1886	-11.2211
▁ski	-11.222
▁nationalist	-11.2221
screen	-11.2221
▁dylan	-11.2223
▁thor	-11.2225
pha	-11.2225
▁listened	-11.2225
ching	-11.2227
sley	-11.2228
▁keen	-11.2231
▁michel	-11.2233
▁pressing	-11.2236
▁tier	-11.2237
▁athletes	-11.2237
lea	-11.2238
▁personally	-11.2239
dc	-11.2241
ses	-11.2242
▁frozen	-11.2242
▁mario	-11.2242
▁abraham	-11.2243
▁extend	-11.2243
▁grammar	-11.2245
▁structural	-11.2246
▁drake	-11.2248
▁graph	-11.225
▁aboard	-11.2251
▁pursuit	-11.2251
▁chancellor	-11.2251
▁praise	-11.2251
gui	-11.2255
▁58	-11.2258
1978	-11.2261
kes	-11.2266
week	-11.227
▁judgment	-11.2272
aceae	-11.2272
▁gesture	-11.2274
▁cult	-11.2277
▁facade	-11.2281
▁unsuccessful	-11.2285
▁mod	-11.2291
▁lists	-11.2294
▁norfolk	-11.2296
bc	-11.2296
than	-11.23
▁references	-11.2303
cla	-11.2304
▁playoff	-11.2306
▁qa	-11.2306
▁sierra	-11.2306
▁servant	-11.2311
▁kay	-11.2314
▁bulk	-11.2314
▁squeezed	-11.2314
▁belle	-11.2315
▁bearing	-11.2315
▁meal	-11.2316
▁florence	-11.2317
▁shaft	-11.2318
▁alberta	-11.2319
▁brow	-11.2324
▁departed	-11.2325
▁promoting	-11.2325
▁trapped	-11.2326
▁failing	-11.2327
▁deaths	-11.2329
kai	-11.233
gam	-11.2332
▁blinked	-11.2335
▁delay	-11.2336
rel	-11.2337
cade	-11.2339
▁shallow	-11.234
name	-11.234
1975	-11.234
sym	-11.2341
▁plates	-11.2345
▁mcc	-11.2348
▁editorial	-11.2348
▁corresponding	-11.235
▁sacrifice	-11.235
▁brushed	-11.2351
▁touchdown	-11.2358
▁epic	-11.2367
strom	-11.2367
▁temperatures	-11.2368
▁coaching	-11.2368
▁brisbane	-11.2368
▁carriage	-11.2369
▁canyon	-11.237
person	-11.2372
▁stefan	-11.2372
▁halt	-11.2372
▁guilt	-11.2372
▁shots	-11.2373
▁helicopter	-11.2376
founded	-11.2378
▁laser	-11.238
▁partial	-11.238
hana	-11.2387
▁trigger	-11.2388
▁ven	-11.239
▁hungry	-11.239
▁aspect	-11.2391
▁wont	-11.2392
▁jennifer	-11.2392
miss	-11.2393
makers	-11.2394
▁significance	-11.2395
▁travelled	-11.2395
▁distinctive	-11.2396
▁shakespeare	-11.2398
gie	-11.2402
▁rent	-11.2404
▁athens	-11.2404
rail	-11.2405
▁periods	-11.2406
▁olivia	-11.2408
▁instruction	-11.2409
▁demons	-11.2409
▁speakers	-11.2412
meter	-11.2413
▁territorial	-11.2414
▁dub	-11.2421
pra	-11.2423
▁demands	-11.2424
▁printing	-11.2425
▁gauge	-11.2428
▁kane	-11.2428
▁unincorporated	-11.243
▁600	-11.2432
mura	-11.2433
stop	-11.2433
anne	-11.2436
▁diesel	-11.2439
▁alley	-11.2442
▁1884	-11.2443
▁67	-11.2446
▁negotiations	-11.2448
hua	-11.2448
▁characteristic	-11.2449
▁mob	-11.245
pit	-11.245
▁carries	-11.2451
▁youtube	-11.2456
▁patch	-11.2456
pol	-11.2459
▁cox	-11.2459
▁prices	-11.2461
▁examination	-11.2461
▁coup	-11.2465
vie	-11.2466
kon	-11.2467
▁evolved	-11.2469
▁recipient	-11.2469
▁northwestern	-11.247
▁accessible	-11.2472
thi	-11.2474
▁tomb	-11.2474
▁escort	-11.2474
▁explains	-11.2477
▁maritime	-11.2477
▁dining	-11.2477
▁kas	-11.2479
spect	-11.248
zar	-11.2481
▁wallace	-11.2483
▁inch	-11.2484
▁grid	-11.2484
▁collapsed	-11.2485
finals	-11.2486
▁colleges	-11.2488
▁steep	-11.2489
hin	-11.249
▁nevada	-11.2492
▁mae	-11.2498
▁employee	-11.2498
its	-11.2499
▁tenth	-11.2499
▁1882	-11.25
▁divorce	-11.25
race	-11.2502
▁submitted	-11.2506
▁scores	-11.2508
yon	-11.2508
▁eligible	-11.2508
▁cheese	-11.2509
john	-11.2509
▁59	-11.251
▁investigate	-11.252
tron	-11.252
uv	-11.252
▁referring	-11.2523
▁resumed	-11.2523
▁taxi	-11.2525
▁consultant	-11.2525
▁depot	-11.2526
▁clo	-11.2527
▁wheels	-11.2527
▁chill	-11.2528
lor	-11.253
▁permitted	-11.2531
▁rama	-11.2531
▁ivy	-11.2532
▁respective	-11.2532
chet	-11.2533
▁vary	-11.2534
berry	-11.2536
▁valid	-11.2537
▁66	-11.2539
1,0	-11.2541
▁bol	-11.2545
▁essentially	-11.2546
shed	-11.2546
▁grades	-11.2549
bell	-11.2552
▁cork	-11.2553
▁congressional	-11.2555
▁cancelled	-11.2555
▁shipping	-11.2555
▁otto	-11.2556
▁locomotives	-11.2557
▁impressive	-11.2558
▁arrow	-11.256
bound	-11.2562
emi	-11.2563
since	-11.2566
▁watson	-11.2569
▁magazines	-11.257
▁vel	-11.2571
▁armor	-11.2571
▁booth	-11.2574
▁mau	-11.2581
▁patron	-11.2583
▁brass	-11.2584
▁clients	-11.2585
▁liga	-11.2586
▁walks	-11.2587
ded	-11.2589
▁diplomatic	-11.2591
aging	-11.2592
iko	-11.2594
▁properly	-11.2595
▁trumpet	-11.2597
illo	-11.26
dp	-11.2602
rated	-11.2604
▁prey	-11.2605
▁settlements	-11.2606
▁announcement	-11.2608
iata	-11.2613
lane	-11.2614
▁hebrew	-11.2615
cp	-11.2615
nel	-11.2616
▁veteran	-11.2616
▁gather	-11.2617
boat	-11.2617
▁worker	-11.2619
▁muslims	-11.2621
▁jun	-11.2621
▁taxes	-11.2622
▁bitter	-11.2622
▁originated	-11.2627
▁interviews	-11.263
ular	-11.2633
oy	-11.2635
▁petition	-11.2636
▁exhibit	-11.2636
ech	-11.2637
▁hollow	-11.2638
enburg	-11.2639
▁pastor	-11.264
▁lind	-11.264
▁cluster	-11.264
▁exile	-11.2642
▁powered	-11.2644
▁mortal	-11.2649
▁yale	-11.265
▁dragged	-11.2654
mara	-11.2655
real	-11.2655
▁humor	-11.2658
▁mainstream	-11.2658
▁invitation	-11.2658
▁scattered	-11.2658
▁brilliant	-11.2659
▁pairs	-11.2661
▁simpson	-11.2662
hra	-11.2663
▁fail	-11.2663
▁nancy	-11.2663
ito	-11.2665
▁engage	-11.2665
▁relevant	-11.2667
▁beaten	-11.2668
▁liu	-11.2669
amba	-11.267
▁tables	-11.2671
▁banned	-11.2674
▁fog	-11.2676
▁export	-11.2676
▁kos	-11.2678
▁historians	-11.268
pers	-11.2681
fan	-11.2684
▁banner	-11.2688
▁bridges	-11.2691
gna	-11.2697
▁wilhelm	-11.2698
atory	-11.2698
▁vector	-11.2699
▁columns	-11.2699
▁automatically	-11.2702
een	-11.2704
▁approaches	-11.2705
ili	-11.2706
▁lots	-11.2706
ations	-11.2708
▁convicted	-11.2709
▁ox	-11.2709
▁locomotive	-11.2712
▁sap	-11.2712
fine	-11.2712
ander	-11.2713
▁rational	-11.2714
▁karen	-11.2716
▁regulation	-11.2719
▁usage	-11.2721
▁burial	-11.2721
▁yang	-11.2726
▁opponents	-11.2726
▁fastest	-11.2727
cra	-11.2727
▁venice	-11.2729
▁doctrine	-11.2731
ax	-11.2732
ello	-11.2733
▁attacking	-11.2733
▁chip	-11.2733
sche	-11.2734
▁coaches	-11.2736
▁chen	-11.2741
▁deer	-11.2742
▁horizon	-11.2742
▁harper	-11.2744
ls	-11.2745
▁charm	-11.2747
▁comments	-11.2748
school	-11.2749
▁nad	-11.2751
nica	-11.2752
tine	-11.2754
▁christianity	-11.2756
▁celtic	-11.2757
▁elaborate	-11.2759
▁raven	-11.2761
▁scandal	-11.2763
▁nord	-11.2765
▁constantly	-11.2766
▁shade	-11.2767
▁cincinnati	-11.2767
▁contributing	-11.2767
rb	-11.2768
▁sits	-11.2768
▁suspect	-11.2769
ising	-11.2771
▁mala	-11.2772
▁carved	-11.2772
▁leeds	-11.2778
▁purse	-11.2778
▁towers	-11.2779
▁qualification	-11.2789
▁frontier	-11.2789
▁commanding	-11.2789
▁messages	-11.279
▁hank	-11.2792
sub	-11.2793
▁rim	-11.2793
itz	-11.2793
▁stack	-11.2793
▁mouse	-11.2794
▁fury	-11.2794
▁topics	-11.2798
▁mol	-11.2799
▁72	-11.28
ket	-11.2801
▁verse	-11.2804
▁glasses	-11.2805
▁preparing	-11.2807
stock	-11.2807
kill	-11.2807
▁instructor	-11.2809
▁crashed	-11.281
▁festivals	-11.2812
▁liberation	-11.2813
▁payment	-11.2814
▁marshal	-11.2815
▁defended	-11.2817
▁bennett	-11.2818
8,000	-11.2819
▁struggling	-11.2821
▁brush	-11.2821
▁plaza	-11.2825
▁1988,	-11.2825
▁ottawa	-11.2827
roy	-11.2828
▁inducted	-11.2829
▁gram	-11.2832
▁challenges	-11.2833
▁narrowed	-11.2834
got	-11.2835
▁rub	-11.2835
▁saving	-11.2836
▁doug	-11.2838
ending	-11.2843
▁acc	-11.2845
▁rings	-11.2846
▁civic	-11.2846
▁massacre	-11.2847
▁mara	-11.2848
▁barcelona	-11.2849
▁surely	-11.285
▁sliding	-11.2853
▁hardware	-11.2863
▁bolt	-11.2863
▁variable	-11.2869
▁sm	-11.2869
hurst	-11.2871
▁queens	-11.2871
▁signals	-11.2876
▁peer	-11.2881
▁meta	-11.2881
anga	-11.2883
▁brings	-11.2885
▁resignation	-11.2886
▁shorter	-11.2887
zia	-11.2889
▁barrel	-11.2893
▁fond	-11.2895
▁monitor	-11.2895
▁bern	-11.2901
founder	-11.2902
aro	-11.2905
▁flights	-11.2906
▁tested	-11.2906
gard	-11.2908
▁pillow	-11.2909
▁equally	-11.2912
▁recover	-11.2912
▁firmly	-11.2914
▁attract	-11.2914
cro	-11.2916
▁phillips	-11.2918
mine	-11.2924
▁mos	-11.2927
▁pipe	-11.2927
▁mutual	-11.2928
▁spaces	-11.293
▁advocate	-11.2931
▁panama	-11.2933
half	-11.2934
1973	-11.2935
▁1987,	-11.2939
▁instructions	-11.2939
▁nowhere	-11.2941
▁functional	-11.2942
▁bunch	-11.2942
cis	-11.2945
▁dai	-11.2945
▁mentor	-11.2949
▁ranging	-11.295
nov	-11.2952
▁visits	-11.2952
ike	-11.2952
▁fever	-11.2954
mot	-11.2959
dou	-11.2959
600	-11.296
eb	-11.2961
▁innovation	-11.2962
▁guitars	-11.2963
▁hughes	-11.2963
beat	-11.2964
▁levi	-11.2965
raj	-11.2969
1972	-11.2969
eck	-11.297
▁riders	-11.297
▁rated	-11.2971
▁succession	-11.2972
▁obama	-11.2974
▁heir	-11.2974
▁yi	-11.2975
▁pig	-11.2979
▁rode	-11.2979
▁frost	-11.298
▁1883	-11.298
works	-11.298
gent	-11.2981
▁curious	-11.2983
▁marco	-11.2984
▁germans	-11.2986
▁idol	-11.2986
headed	-11.2989
grad	-11.2989
music	-11.2991
hof	-11.2991
▁rebel	-11.2992
▁exhibited	-11.2995
6,000	-11.2995
▁diseases	-11.2997
▁101	-11.2998
▁palmer	-11.2999
▁saudi	-11.2999
▁saxophone	-11.2999
▁filling	-11.2999
cross	-11.2999
▁stranger	-11.3001
▁customer	-11.3003
▁governments	-11.3004
wyn	-11.3007
▁restaurants	-11.3007
phone	-11.3008
▁symptoms	-11.3008
▁gr	-11.301
lies	-11.301
▁occasional	-11.3014
▁healthy	-11.3019
▁experiments	-11.302
oda	-11.3025
▁boulevard	-11.3025
▁array	-11.3027
1977	-11.3027
▁reconstruction	-11.3028
pf	-11.3035
▁slam	-11.3035
▁participating	-11.3036
▁philosopher	-11.3037
borough	-11.3038
▁caroline	-11.3038
▁behaviour	-11.3039
▁freight	-11.304
▁renaissance	-11.3041
▁eagles	-11.3041
▁quartet	-11.3042
april	-11.3044
▁anton	-11.3045
▁hus	-11.3047
ire	-11.3051
tun	-11.3053
▁tissue	-11.3054
apa	-11.3054
▁phd	-11.3055
▁favourite	-11.3056
▁syria	-11.3056
▁clouds	-11.3061
▁excitement	-11.3062
▁roland	-11.3065
▁depicted	-11.3066
▁flute	-11.3066
▁jacques	-11.3066
eight	-11.307
▁react	-11.3071
▁1945,	-11.3073
▁basement	-11.3074
▁expecting	-11.3077
app	-11.3079
▁interaction	-11.3079
▁henri	-11.308
▁punch	-11.3081
lian	-11.3081
▁installation	-11.3081
ates	-11.3082
ios	-11.3083
▁theories	-11.3083
▁profession	-11.3084
pic	-11.3084
▁jerked	-11.3087
▁reader	-11.3087
▁sau	-11.3087
▁targets	-11.3089
▁marsh	-11.309
▁quest	-11.309
▁pont	-11.3093
col	-11.3094
▁shrine	-11.3095
▁urge	-11.3095
▁computers	-11.3098
▁http	-11.3101
ico	-11.3106
▁bis	-11.3107
▁helps	-11.3108
▁sor	-11.3108
▁legacy	-11.3109
▁gym	-11.3113
▁dynamic	-11.3113
▁breed	-11.3113
▁doubles	-11.3114
yang	-11.3114
tl	-11.3114
▁99	-11.3114
▁martial	-11.3115
1974	-11.3116
▁closure	-11.3117
▁1986,	-11.3117
▁camps	-11.312
▁warsaw	-11.312
owski	-11.3124
ois	-11.3125
▁focusing	-11.3126
▁removal	-11.3128
itis	-11.313
▁dancer	-11.3131
odi	-11.3136
▁baronet	-11.3136
▁extensively	-11.3137
▁bulgarian	-11.3138
▁thai	-11.3139
phi	-11.314
▁democrats	-11.3144
▁readers	-11.3147
▁1878	-11.3148
wind	-11.3148
▁signature	-11.3149
▁honors	-11.3151
▁excellence	-11.3154
1971	-11.3157
▁proportion	-11.3159
▁songwriter	-11.316
▁ernest	-11.3161
august	-11.3163
▁secrets	-11.3165
▁sexy	-11.3165
sic	-11.3165
▁beau	-11.3166
▁moor	-11.317
▁franco	-11.3173
lene	-11.3174
mid	-11.3174
▁protests	-11.3178
▁imagined	-11.3181
▁mainland	-11.3187
▁afford	-11.3188
▁sensitive	-11.3191
▁olive	-11.3191
▁addressed	-11.3194
▁picking	-11.3194
▁notion	-11.3196
▁alter	-11.3197
▁efficiency	-11.3199
▁talks	-11.3199
shu	-11.3202
▁practically	-11.3204
▁edges	-11.3204
▁lar	-11.3206
eastern	-11.3206
sun	-11.3209
▁twist	-11.3209
▁circles	-11.321
▁enrolled	-11.3211
▁manga	-11.3212
▁psychological	-11.3213
jur	-11.3215
rine	-11.3215
▁curled	-11.322
ivo	-11.322
▁suspension	-11.3221
june	-11.3222
▁samples	-11.323
craft	-11.3233
▁journalism	-11.3237
▁corruption	-11.3237
▁ted	-11.3237
zh	-11.3238
order	-11.3238
▁radiation	-11.3239
▁alert	-11.3241
very	-11.3241
dimensional	-11.3241
▁temporarily	-11.3245
▁64,	-11.3247
shot	-11.3253
▁fairy	-11.3253
▁lessons	-11.3253
▁intensity	-11.3254
▁curtis	-11.3255
▁workshop	-11.3257
rant	-11.3258
▁wei	-11.3258
▁directions	-11.3258
▁magnetic	-11.3263
▁ace	-11.3266
▁reward	-11.3269
▁byzantine	-11.3274
▁ties	-11.3279
ering	-11.3279
▁hut	-11.328
▁argentine	-11.3283
▁judicial	-11.3285
▁revised	-11.3287
▁strings	-11.3287
▁liam	-11.3291
active	-11.3292
▁gan	-11.3294
▁wiped	-11.3299
▁newcastle	-11.3299
▁variation	-11.33
▁manuscript	-11.33
▁dissolved	-11.3301
▁110	-11.3301
▁torture	-11.3303
▁theatrical	-11.3306
▁hitler	-11.3309
▁grandson	-11.3311
▁gothic	-11.3311
shaw	-11.3313
mut	-11.3314
▁heels	-11.3315
▁ford	-11.3316
released	-11.3316
▁roth	-11.3316
▁brave	-11.3317
▁tub	-11.3318
▁concentrated	-11.3323
eer	-11.3325
▁shame	-11.3328
wy	-11.3328
nation	-11.3328
700	-11.333
▁glory	-11.333
july	-11.3331
▁preston	-11.3333
▁seized	-11.3337
▁generate	-11.3337
▁#2	-11.3338
▁1875	-11.334
▁defender	-11.3342
▁awake	-11.3343
▁decree	-11.3343
▁veterans	-11.3344
▁discipline	-11.3344
ingham	-11.3345
▁consist	-11.3345
dorf	-11.3346
▁montana	-11.3346
▁trailer	-11.3348
▁battles	-11.3348
▁woke	-11.3348
▁sk	-11.3348
▁68	-11.335
▁rushing	-11.335
▁nas	-11.335
lines	-11.335
looking	-11.3352
▁sophie	-11.3354
▁disorder	-11.3355
▁herald	-11.3356
gro	-11.3357
▁seeds	-11.3359
north	-11.3361
▁breaks	-11.3362
▁vladimir	-11.3363
▁supplied	-11.3364
▁indicating	-11.3366
▁improvements	-11.3367
▁succeed	-11.3369
▁reg	-11.3372
▁convoy	-11.3372
▁chang	-11.3373
▁electronics	-11.3373
▁tra	-11.3374
▁slot	-11.3378
▁rookie	-11.3384
▁cuts	-11.3387
▁flashed	-11.3388
tai	-11.3389
▁travels	-11.3392
rup	-11.3394
▁jen	-11.3398
▁challenged	-11.34
▁zi	-11.34
▁quarterback	-11.34
▁95	-11.3404
▁myth	-11.3405
▁theology	-11.3405
haus	-11.3407
▁thinks	-11.3409
▁reducing	-11.341
▁striking	-11.341
▁franz	-11.3413
dha	-11.3413
▁montgomery	-11.3413
▁petersburg	-11.3415
▁accent	-11.3415
▁colonies	-11.3417
▁attractive	-11.3417
▁resist	-11.3417
▁warmth	-11.3417
▁croatia	-11.3426
tter	-11.3428
▁warfare	-11.3428
▁handling	-11.3429
ente	-11.3429
▁connor	-11.343
speaking	-11.3435
▁presents	-11.3437
▁800	-11.344
▁physically	-11.3442
▁emerging	-11.3443
▁blanket	-11.3445
▁deemed	-11.3449
▁tense	-11.345
▁customs	-11.3451
▁naturally	-11.3452
▁spare	-11.3453
mani	-11.3454
▁1985,	-11.3455
▁loyal	-11.3456
til	-11.3456
▁bother	-11.3457
▁transform	-11.3459
uka	-11.346
▁lid	-11.346
▁pitt	-11.3461
rite	-11.3462
▁kre	-11.3464
▁blond	-11.3465
▁runway	-11.3465
▁nepal	-11.3466
das	-11.347
▁footage	-11.3471
oe	-11.3471
▁pretend	-11.3471
▁equation	-11.3473
▁biography	-11.3476
▁lawsuit	-11.3477
yar	-11.3478
group	-11.3478
▁miguel	-11.3479
▁wellington	-11.348
arch	-11.3481
▁kom	-11.3483
▁airfield	-11.3486
aged	-11.349
grade	-11.349
pus	-11.3492
kk	-11.3493
▁bride	-11.3496
▁palestinian	-11.3497
▁marathon	-11.3497
▁jessica	-11.35
▁pirates	-11.3502
▁berkeley	-11.3503
yr	-11.3503
1969	-11.3504
▁francois	-11.3505
▁architects	-11.3505
▁1871	-11.3507
▁1879	-11.3507
alis	-11.3509
french	-11.3509
▁1876	-11.351
▁revolt	-11.351
▁admission	-11.3512
▁lesser	-11.3513
▁elevated	-11.3515
▁kurt	-11.3515
▁releasing	-11.3515
▁sue	-11.3515
▁faded	-11.3517
▁auction	-11.3517
▁handsome	-11.3518
▁amazon	-11.3522
▁swift	-11.3522
aux	-11.3524
▁molecular	-11.3525
▁moderate	-11.3526
▁bloom	-11.3527
▁hind	-11.3527
▁raced	-11.3528
▁lightly	-11.3531
front	-11.3531
▁dialect	-11.3532
▁heath	-11.3535
▁pulls	-11.3536
▁wheat	-11.3537
still	-11.3542
▁ritual	-11.3543
▁difficulties	-11.3545
osis	-11.3547
wide	-11.3548
▁integration	-11.3548
mail	-11.3548
▁societies	-11.3554
▁repeatedly	-11.3555
▁conquest	-11.3558
▁grateful	-11.3559
▁specialist	-11.3559
▁loving	-11.3561
cum	-11.3562
▁autonomous	-11.3563
▁elbow	-11.3569
▁maurice	-11.3569
▁magical	-11.3571
▁configuration	-11.3572
▁fen	-11.3573
▁cc	-11.3574
▁carpet	-11.3576
bourne	-11.3577
dd	-11.358
▁fountain	-11.3581
▁ministers	-11.3583
▁ei	-11.3583
ald	-11.3584
tree	-11.3586
▁attraction	-11.3587
▁powder	-11.3588
▁enters	-11.3588
▁fisher	-11.3589
▁della	-11.3589
▁vulnerable	-11.359
october	-11.3591
etti	-11.3591
both	-11.3596
▁archives	-11.3596
vat	-11.3596
▁proteins	-11.3597
▁pilots	-11.3597
▁erik	-11.3599
▁ronald	-11.3601
▁echo	-11.3601
▁wrap	-11.3601
▁amanda	-11.3602
▁boxes	-11.3602
▁preservation	-11.3602
vert	-11.3602
▁athlete	-11.3603
▁newton	-11.3604
▁violet	-11.3606
▁southeastern	-11.3607
1968	-11.3608
▁server	-11.361
▁sto	-11.361
▁clearing	-11.361
▁boxing	-11.361
▁sake	-11.3611
▁commenced	-11.3612
▁clarke	-11.3612
berger	-11.3612
bing	-11.3612
▁accurate	-11.3613
▁md	-11.3613
▁heavyweight	-11.3615
▁mist	-11.3617
▁1840	-11.3617
▁serie	-11.362
▁lecture	-11.3621
▁google	-11.3621
vir	-11.3621
▁blog	-11.3622
poli	-11.3623
▁mack	-11.3624
song	-11.3625
tta	-11.3627
▁monarch	-11.3627
▁bryan	-11.363
ides	-11.363
oto	-11.3631
▁circular	-11.3633
▁assists	-11.3635
np	-11.3636
▁porter	-11.3638
▁damp	-11.3638
▁altar	-11.3639
▁eli	-11.3639
▁miracle	-11.3639
▁generations	-11.3641
isa	-11.3641
▁sailing	-11.3647
▁polar	-11.3647
home	-11.3649
▁azerbaijan	-11.365
turn	-11.3651
▁strict	-11.3652
▁qu	-11.3654
cen	-11.3655
ying	-11.3656
phy	-11.3659
too	-11.366
▁extending	-11.366
▁courage	-11.3662
lai	-11.3662
▁annie	-11.3662
▁writings	-11.3666
▁nursing	-11.3666
seven	-11.3667
▁breeding	-11.3668
ml	-11.3674
▁bran	-11.3676
▁joke	-11.3676
▁matrix	-11.3677
▁moss	-11.3678
▁oz	-11.3682
quer	-11.3682
▁bha	-11.3683
▁dee	-11.3685
▁guidance	-11.3685
▁variations	-11.3685
wait	-11.3686
▁bulgaria	-11.3687
1/	-11.3687
asi	-11.3687
▁automobile	-11.3688
▁influences	-11.3694
▁retain	-11.3696
▁doctorate	-11.3698
▁collar	-11.37
▁1868	-11.37
▁chaos	-11.3701
▁counsel	-11.3705
▁1866	-11.3707
▁encountered	-11.3709
date	-11.371
▁sting	-11.3711
▁kisses	-11.3711
zin	-11.3712
▁lac	-11.3713
▁stored	-11.3715
▁maintaining	-11.3717
▁humanity	-11.3719
▁felix	-11.3719
▁renowned	-11.372
▁louise	-11.3721
vari	-11.3723
▁reich	-11.3723
oi	-11.3724
▁relaxed	-11.3726
▁consistent	-11.3726
▁flank	-11.373
hoe	-11.3732
enko	-11.3733
▁1867	-11.3733
wheel	-11.3734
▁methodist	-11.3735
series	-11.3736
etta	-11.3736
▁cooking	-11.3737
ssa	-11.3739
750	-11.374
▁mak	-11.3741
▁venezuela	-11.3741
▁1984,	-11.3741
▁gur	-11.3744
pad	-11.3745
▁delayed	-11.3745
▁spite	-11.3752
▁efficient	-11.3754
▁bout	-11.3755
nda	-11.3756
▁1872	-11.376
▁java	-11.376
▁populations	-11.3761
jin	-11.3762
▁brooks	-11.3764
▁tide	-11.3765
▁sen	-11.3765
▁rape	-11.3767
▁hunger	-11.377
▁bark	-11.3772
▁fal	-11.3773
▁hannah	-11.3774
dian	-11.3776
▁cure	-11.3778
media	-11.3779
iana	-11.3779
▁jungle	-11.378
▁prospect	-11.378
would	-11.3781
escu	-11.3782
sal	-11.3783
▁blew	-11.3785
▁neighboring	-11.3788
▁shanghai	-11.3789
▁butter	-11.379
dle	-11.3793
▁planted	-11.3794
jer	-11.3795
▁nam	-11.3795
▁routine	-11.38
▁eyebrows	-11.3802
2018	-11.3804
rad	-11.3805
lived	-11.3807
vik	-11.3809
▁portal	-11.3811
▁johann	-11.3812
▁sony	-11.3813
▁exploration	-11.3814
▁compact	-11.3814
▁casino	-11.3815
▁twins	-11.3815
▁robot	-11.3816
▁tours	-11.3819
september	-11.3822
rf	-11.3822
▁embassy	-11.3823
tracks	-11.3823
load	-11.3826
pes	-11.3829
▁savage	-11.3832
nothing	-11.3833
▁consciousness	-11.3834
▁gaining	-11.3835
▁sanctuary	-11.3836
▁elect	-11.3838
▁strain	-11.3838
▁topic	-11.3842
max	-11.3842
▁airline	-11.3845
▁stiff	-11.3846
▁jared	-11.3847
▁warehouse	-11.3848
lou	-11.385
▁happiness	-11.3851
uck	-11.3854
▁separation	-11.3854
▁scan	-11.3854
▁imprisoned	-11.3856
▁satisfied	-11.3858
▁sullivan	-11.3859
▁resting	-11.3864
eli	-11.3866
▁floating	-11.3867
▁variant	-11.3868
▁collaborated	-11.3868
▁commons	-11.387
▁maid	-11.3871
seat	-11.3871
▁linda	-11.3872
lib	-11.3873
▁shy	-11.3873
sco	-11.3875
▁situations	-11.3875
▁consumption	-11.3876
ulu	-11.3876
▁manufacture	-11.3877
▁encourage	-11.3878
▁pala	-11.3878
▁rabbit	-11.3878
▁poured	-11.3879
erie	-11.388
▁delaware	-11.3883
▁lynn	-11.3884
▁grande	-11.3885
▁rou	-11.3888
hart	-11.3892
▁complicated	-11.3894
▁bald	-11.3895
▁fra	-11.3897
▁prevented	-11.39
▁bach	-11.39
songwriter	-11.3901
▁hai	-11.3901
▁banking	-11.3901
▁graphics	-11.3905
rit	-11.3905
path	-11.3907
ics	-11.3908
ode	-11.3912
▁christians	-11.3913
ame	-11.3914
▁exterior	-11.3917
▁receives	-11.3917
▁consequences	-11.3922
frame	-11.3927
▁luc	-11.3929
▁recreation	-11.3929
▁literacy	-11.3929
▁experts	-11.393
range	-11.393
▁$5	-11.3931
▁navigation	-11.3933
▁jenny	-11.3933
▁administered	-11.3936
▁approaching	-11.3937
▁78	-11.3938
▁uncertain	-11.3941
▁lad	-11.3942
step	-11.3943
▁demo	-11.3943
▁sheffield	-11.3945
cz	-11.3946
▁maggie	-11.3949
chu	-11.3949
▁cher	-11.3949
▁stanford	-11.395
ath	-11.395
▁permanently	-11.395
▁unity	-11.3953
▁mere	-11.3954
▁neutral	-11.3954
▁blocked	-11.3956
ude	-11.3959
▁cake	-11.3961
▁armies	-11.3962
▁testament	-11.3965
▁chester	-11.3966
▁arrives	-11.3967
▁holly	-11.3969
▁amber	-11.3971
ving	-11.3972
▁copyright	-11.3974
▁lecturer	-11.3976
▁fucking	-11.3978
▁hamburg	-11.3979
▁solve	-11.398
▁gasped	-11.3982
▁syndrome	-11.3983
▁dash	-11.3984
▁convert	-11.3986
tig	-11.3988
1966	-11.3989
▁hey	-11.399
▁hopes	-11.3991
self	-11.3995
iro	-11.3998
▁screenplay	-11.4
▁eugene	-11.4001
▁landmark	-11.4002
oke	-11.4002
▁sai	-11.4006
▁tactical	-11.4008
▁outfit	-11.4008
▁1874	-11.4012
▁rom	-11.4017
▁quarters	-11.402
▁halfway	-11.4022
▁mtv	-11.4022
▁hurry	-11.4024
▁bases	-11.4025
▁assignment	-11.4025
▁commentary	-11.4031
▁1877	-11.4031
gl	-11.4032
▁ellis	-11.4033
door	-11.4035
▁campaigns	-11.4037
▁beta	-11.4039
▁ruins	-11.4039
base	-11.404
▁1982,	-11.404
ically	-11.4041
1950	-11.4041
▁roosevelt	-11.4043
▁isnt	-11.4043
▁ap	-11.4044
▁migration	-11.4046
▁shane	-11.4046
▁transformed	-11.4047
▁tightened	-11.4048
▁kumar	-11.4049
give	-11.4051
▁flee	-11.4051
▁mercy	-11.4051
▁evan	-11.4052
▁pseudo	-11.4053
▁edmund	-11.4054
▁restore	-11.4054
▁climbing	-11.4055
▁relating	-11.4056
▁rubber	-11.4058
leigh	-11.4059
▁1944,	-11.406
▁croatian	-11.4061
eller	-11.4061
dog	-11.4067
▁casualties	-11.4068
800	-11.4069
▁fierce	-11.407
▁suck	-11.407
▁fro	-11.4071
▁emi	-11.4072
▁tram	-11.4072
▁infant	-11.4073
vas	-11.4075
▁rounded	-11.4075
▁clement	-11.4078
▁essay	-11.4079
▁lebanon	-11.4081
▁revealing	-11.4085
▁fewer	-11.4088
▁contents	-11.409
▁graphic	-11.409
▁reserves	-11.4093
▁dame	-11.4095
▁exhibitions	-11.4097
▁pil	-11.4099
duc	-11.41
▁rebels	-11.4101
▁holes	-11.4102
iel	-11.4108
▁recruited	-11.4111
sound	-11.4111
bird	-11.4113
▁auckland	-11.4116
▁friedrich	-11.412
▁colleagues	-11.4122
▁protocol	-11.4122
▁whistle	-11.4126
▁dragons	-11.4126
▁unconscious	-11.4127
▁pepper	-11.4127
akh	-11.413
▁introduce	-11.4137
▁clenched	-11.4138
▁abstract	-11.4139
nian	-11.4141
▁lords	-11.4142
▁stark	-11.4143
bee	-11.4143
▁kun	-11.4145
▁yugoslavia	-11.4148
▁absent	-11.415
▁ruin	-11.4151
▁quantum	-11.4155
▁1972,	-11.4155
▁screw	-11.4161
▁bab	-11.4163
1967	-11.4164
▁bala	-11.4165
▁email	-11.4166
▁followers	-11.4166
ered	-11.4168
▁explorer	-11.4169
▁lobby	-11.4174
▁programmes	-11.4175
▁dive	-11.4176
▁feeding	-11.4176
▁namely	-11.4177
▁seminary	-11.4178
dine	-11.4179
▁priests	-11.4181
▁dull	-11.4183
▁sometime	-11.4184
oz	-11.4184
▁apollo	-11.4184
▁beard	-11.4184
▁connects	-11.4185
▁thereby	-11.4188
stad	-11.4188
▁tat	-11.4188
▁fbi	-11.4194
▁consent	-11.4194
▁backward	-11.4198
rom	-11.42
super	-11.42
▁mum	-11.4201
▁aggregate	-11.4202
▁amounts	-11.4203
▁sei	-11.4205
▁sixty	-11.4206
▁barrier	-11.4206
▁albanian	-11.4209
▁prestigious	-11.4209
▁gem	-11.4211
▁cricketer	-11.4212
▁1873	-11.4212
▁sucked	-11.4213
▁silently	-11.4221
sil	-11.4222
▁crops	-11.4223
last	-11.4223
corn	-11.4224
omi	-11.4225
2,000	-11.4227
▁abdul	-11.4228
▁idiot	-11.4232
▁andrea	-11.4235
▁quinn	-11.4237
keeper	-11.4237
▁iraqi	-11.4237
▁descendants	-11.4238
▁disbanded	-11.4239
▁widened	-11.4242
▁manufacturers	-11.4243
▁loaded	-11.4243
pack	-11.4244
▁nebraska	-11.4245
▁identification	-11.4245
arra	-11.4249
▁axis	-11.4249
▁ober	-11.4249
▁crest	-11.4251
yam	-11.4253
▁thi	-11.4256
▁disk	-11.4256
▁profit	-11.4257
▁colt	-11.4258
lim	-11.4261
7,000	-11.4266
▁registration	-11.4266
asa	-11.4267
▁perceived	-11.4268
▁hd	-11.4268
▁forgive	-11.4268
▁bishops	-11.427
tation	-11.4272
▁explore	-11.4273
▁comprises	-11.4273
▁hawk	-11.4274
▁zhang	-11.4275
hai	-11.4279
bling	-11.428
▁tru	-11.428
▁lovely	-11.4281
▁leslie	-11.4285
▁blonde	-11.429
▁episcopal	-11.429
▁farther	-11.4294
▁contribute	-11.4295
built	-11.4297
lla	-11.4299
dos	-11.4299
▁breathed	-11.43
▁chambers	-11.4301
ify	-11.4302
▁ps	-11.431
▁storyline	-11.431
▁mature	-11.4312
▁sip	-11.4314
▁northeastern	-11.4314
▁midfielder	-11.4315
▁nut	-11.4319
▁aria	-11.4319
november	-11.432
▁diversity	-11.4326
▁kinds	-11.4328
▁lamb	-11.4328
eno	-11.4328
▁organisations	-11.4329
▁departments	-11.4329
tag	-11.433
▁rot	-11.4332
hib	-11.4334
▁fl	-11.4336
bag	-11.4336
▁pianist	-11.4336
▁sofia	-11.4336
mir	-11.4337
ann	-11.4338
▁1979,	-11.434
▁nashville	-11.4343
anta	-11.4343
bone	-11.4343
kot	-11.4346
▁publishers	-11.4346
dl	-11.4348
▁presidency	-11.4349
action	-11.4349
▁coin	-11.4349
▁stockholm	-11.4349
▁plains	-11.4352
▁libraries	-11.4352
▁console	-11.4352
▁mt	-11.4353
▁psycho	-11.4353
▁anime	-11.4353
▁vault	-11.4354
although	-11.4354
zhi	-11.4358
▁spear	-11.4358
▁glacier	-11.4362
▁96	-11.4365
▁tau	-11.4366
▁nate	-11.4366
▁1983,	-11.4366
▁minimal	-11.4366
rain	-11.437
▁vii	-11.4373
▁towel	-11.4374
▁69	-11.4374
▁melody	-11.4375
▁lopez	-11.4375
▁evaluation	-11.4377
▁controls	-11.4379
sim	-11.438
▁questioned	-11.4387
▁tasks	-11.4389
▁uncomfortable	-11.4391
▁triangle	-11.4395
▁warrant	-11.4397
▁proceedings	-11.4399
▁trevor	-11.4403
▁steal	-11.4405
qa	-11.4406
tail	-11.4408
▁yan	-11.4411
▁1974,	-11.4413
▁preliminary	-11.4414
guer	-11.4414
▁predecessor	-11.4416
▁cameras	-11.4417
▁mineral	-11.4417
▁survivors	-11.442
fra	-11.4425
▁growled	-11.4426
▁85	-11.4427
roll	-11.443
▁swamp	-11.4434
weight	-11.4434
▁stoke	-11.4435
▁pension	-11.4439
▁roster	-11.4442
▁concepts	-11.4444
▁vir	-11.4449
mill	-11.4451
▁trend	-11.4455
vey	-11.4457
▁eager	-11.4457
▁paulo	-11.4458
december	-11.446
▁chad	-11.446
▁communicate	-11.4461
tens	-11.4461
▁dale	-11.4461
▁contracts	-11.4462
▁implement	-11.4462
▁boxer	-11.4464
▁badge	-11.4465
▁tributary	-11.4474
▁vermont	-11.4475
▁protecting	-11.4475
▁bir	-11.4476
▁protective	-11.4477
▁prof	-11.4478
tres	-11.4478
▁estates	-11.4478
und	-11.4479
bet	-11.4481
▁sil	-11.4481
▁mast	-11.4481
▁binding	-11.4483
▁1869	-11.4484
▁consequently	-11.4485
tric	-11.4487
▁wolves	-11.449
▁reservation	-11.449
▁exhausted	-11.4492
ack	-11.4493
df	-11.4496
▁98	-11.4496
▁provision	-11.4496
▁colours	-11.4496
▁frustration	-11.4497
script	-11.4497
▁anglican	-11.45
▁stevens	-11.4502
▁honored	-11.4507
▁altered	-11.4511
▁88	-11.4512
▁brandon	-11.4512
▁southwestern	-11.4513
▁offense	-11.4514
▁77	-11.4516
▁1848	-11.4518
uru	-11.4521
jun	-11.4523
▁actively	-11.4524
▁boards	-11.4525
ario	-11.4527
▁kenneth	-11.4531
▁feared	-11.4533
▁jumping	-11.4533
cam	-11.4534
▁holmes	-11.454
▁cad	-11.4542
pper	-11.4547
▁alma	-11.4549
moo	-11.4549
tern	-11.4549
▁ellen	-11.455
▁tribal	-11.455
▁lust	-11.4551
▁graves	-11.4552
orn	-11.4554
▁hypo	-11.4554
▁fatal	-11.4555
force	-11.4555
▁thursday	-11.456
iness	-11.4561
▁fork	-11.4561
gat	-11.4565
dice	-11.4565
▁mild	-11.4565
▁bicycle	-11.4567
pon	-11.4568
▁sw	-11.457
won	-11.457
▁breeze	-11.4571
▁ratings	-11.4572
▁cara	-11.4573
▁reid	-11.4573
camp	-11.4576
▁refugees	-11.4581
▁threats	-11.4583
▁eaten	-11.4584
iti	-11.4584
▁superintendent	-11.4587
used	-11.4587
atus	-11.4588
▁gel	-11.459
▁protagonist	-11.459
▁counted	-11.4591
▁santiago	-11.4594
▁sheets	-11.46
▁infection	-11.4602
▁wishes	-11.4603
dro	-11.4603
▁flip	-11.4605
▁wounds	-11.4606
gr	-11.4607
▁tal	-11.4609
▁tick	-11.4609
ground	-11.461
ego	-11.4611
▁accomplished	-11.4611
▁essex	-11.4611
fold	-11.4613
▁spectrum	-11.4614
heart	-11.4614
▁bowling	-11.4616
bly	-11.4616
▁2,000	-11.4618
nate	-11.462
rou	-11.4621
fur	-11.4623
▁citizenship	-11.4625
▁slim	-11.4625
▁1830	-11.4628
▁gul	-11.4629
▁dish	-11.4629
▁liv	-11.463
▁proven	-11.4631
aid	-11.4633
▁appreciate	-11.4633
▁sustained	-11.4634
▁vinyl	-11.4635
▁abolished	-11.4637
▁helmet	-11.4637
▁73	-11.4639
▁stall	-11.4639
▁mama	-11.4641
▁missionary	-11.4641
edge	-11.4642
lik	-11.4642
brand	-11.4643
uni	-11.4645
mato	-11.4648
▁wr	-11.465
1964	-11.4651
▁involve	-11.4652
▁pod	-11.4654
▁gravity	-11.4655
odo	-11.4656
▁1968,	-11.4656
▁costume	-11.4658
▁whip	-11.4661
▁invented	-11.4661
▁lifting	-11.4662
chel	-11.4663
▁solomon	-11.4664
▁sig	-11.4666
▁terrace	-11.4668
▁overhead	-11.4669
▁somebody	-11.4671
nice	-11.4671
▁stationed	-11.4673
▁chains	-11.4673
▁tobacco	-11.4674
uber	-11.4676
▁proceeded	-11.4677
▁inscription	-11.4677
▁napoleon	-11.4679
▁extinct	-11.468
▁74	-11.468
gian	-11.468
▁joel	-11.4681
▁invisible	-11.4681
▁feast	-11.4682
▁procedures	-11.4682
▁grammy	-11.4683
▁rested	-11.4684
▁provisions	-11.4689
▁curriculum	-11.4691
▁supplement	-11.4692
▁prague	-11.4692
ency	-11.4692
hoo	-11.4694
▁wednesday	-11.4695
▁grants	-11.4695
▁nico	-11.4696
180	-11.4698
igan	-11.47
▁administrator	-11.4705
▁upstairs	-11.4705
▁vic	-11.4705
▁handful	-11.4708
▁corners	-11.4709
▁chant	-11.471
▁keyboard	-11.4712
quin	-11.4713
▁enzyme	-11.4718
▁hospitals	-11.4724
▁bypass	-11.4724
vit	-11.4726
▁strait	-11.4726
▁everybody	-11.4728
▁modest	-11.4733
▁troy	-11.4733
▁clue	-11.4734
▁guided	-11.4734
▁kerala	-11.4736
▁oval	-11.4737
▁journalists	-11.4739
rg	-11.4741
▁sn	-11.4742
▁malcolm	-11.4742
▁aero	-11.4744
▁chef	-11.4752
lv	-11.4752
▁delicate	-11.4756
▁divide	-11.4757
▁mia	-11.4759
▁citing	-11.4764
▁discontinued	-11.4765
▁possessed	-11.4767
▁bailey	-11.4768
vu	-11.4769
▁coached	-11.477
▁documented	-11.477
lat	-11.4771
▁washed	-11.4773
kara	-11.4774
lining	-11.4774
▁griffin	-11.4774
third	-11.4775
▁acknowledged	-11.4776
▁freak	-11.4776
▁nasa	-11.4777
▁perth	-11.4777
▁lifestyle	-11.4778
▁fol	-11.4779
▁qualifier	-11.478
cf	-11.478
▁diploma	-11.4783
▁acquire	-11.4784
▁dense	-11.4785
yen	-11.4787
lich	-11.4788
▁suggesting	-11.4789
▁lectures	-11.4791
1965	-11.4793
▁diana	-11.4794
▁columbus	-11.4794
▁parked	-11.4796
▁syrian	-11.48
▁severely	-11.4801
pis	-11.4802
▁refuge	-11.4802
▁healing	-11.4803
▁cassie	-11.4806
▁bills	-11.4807
sorry	-11.4809
kie	-11.4811
▁gru	-11.4812
xx	-11.4813
▁martha	-11.4818
▁flowing	-11.4824
▁opens	-11.4825
▁71	-11.4828
▁honours	-11.4829
▁keeps	-11.4834
▁fre	-11.4834
quo	-11.4835
▁trim	-11.4837
▁dies	-11.484
▁aims	-11.484
▁batman	-11.4845
▁indonesian	-11.4848
idi	-11.485
mates	-11.4854
▁1981,	-11.4855
▁holder	-11.4856
▁***	-11.4856
▁requirement	-11.4856
▁cartoon	-11.486
imp	-11.4861
▁monitoring	-11.4861
▁believing	-11.4862
▁uganda	-11.4862
▁bosnia	-11.4864
▁conviction	-11.4865
tru	-11.4869
vc	-11.4869
▁mus	-11.487
▁permit	-11.487
rent	-11.4872
franc	-11.4872
mother	-11.4877
▁oakland	-11.4877
▁cared	-11.4878
▁sketch	-11.4878
▁kenny	-11.4882
▁arguing	-11.4883
produced	-11.4886
rbi	-11.4889
▁farms	-11.489
▁singers	-11.489
▁examined	-11.4891
▁handled	-11.4892
db	-11.4892
▁bradley	-11.4892
▁spirits	-11.4893
▁import	-11.4895
▁lined	-11.4895
▁mercury	-11.4897
▁governing	-11.4897
▁reforms	-11.4897
▁statements	-11.4898
tina	-11.4898
▁zo	-11.4899
never	-11.49
▁confident	-11.4903
ht	-11.4907
▁awful	-11.4908
▁pierce	-11.4909
▁glenn	-11.4909
▁travelling	-11.4914
▁somerset	-11.4914
▁spark	-11.4915
tow	-11.4917
▁ou	-11.4921
▁independently	-11.4924
▁palestine	-11.4924
▁reformed	-11.4925
▁mort	-11.4926
▁gerald	-11.4927
▁hectares	-11.4929
dir	-11.4931
▁searched	-11.4932
▁reconnaissance	-11.4935
iger	-11.4938
eff	-11.494
▁clause	-11.4941
▁telegraph	-11.4942
▁assured	-11.4943
mia	-11.4943
▁casey	-11.4944
phon	-11.4944
▁merc	-11.4945
▁sculptor	-11.4945
▁mare	-11.4947
▁pac	-11.4947
erson	-11.4948
film	-11.4952
▁requiring	-11.4955
alo	-11.4956
watch	-11.4956
▁congo	-11.4957
▁circulation	-11.4959
▁thorn	-11.496
ress	-11.4961
▁overcome	-11.4962
▁vis	-11.4964
▁segments	-11.4965
kor	-11.4965
▁dependent	-11.4966
▁cultures	-11.4967
▁buddy	-11.4967
▁predominantly	-11.4968
january	-11.4968
tana	-11.4969
▁macro	-11.497
nier	-11.497
▁chronicle	-11.4973
japanese	-11.4976
▁extends	-11.4976
▁woodland	-11.4979
hab	-11.4979
coming	-11.498
bul	-11.498
▁upcoming	-11.4982
▁spray	-11.4983
▁ridiculous	-11.4983
▁slope	-11.4984
▁legendary	-11.4984
▁algorithm	-11.4989
▁kylie	-11.4991
▁ballad	-11.4991
lab	-11.4991
▁casting	-11.4994
▁trainer	-11.4994
▁bags	-11.4994
▁facebook	-11.4996
▁lungs	-11.4998
▁detect	-11.4998
lk	-11.5002
▁180	-11.5003
cm	-11.5004
▁removing	-11.5006
site	-11.5006
stage	-11.5006
something	-11.5007
pole	-11.5007
▁item	-11.5012
cine	-11.5012
▁monica	-11.5016
abi	-11.5017
aq	-11.5018
▁layout	-11.5021
thanks	-11.5022
▁cyber	-11.5022
lev	-11.5022
1962	-11.5023
▁temples	-11.5024
▁limestone	-11.5025
little	-11.5025
▁genes	-11.5026
▁1800	-11.5026
▁1975,	-11.5029
▁servants	-11.503
▁manages	-11.5031
iah	-11.5035
▁guarantee	-11.5036
▁practiced	-11.5036
▁buzz	-11.5038
▁seventeen	-11.5038
▁layers	-11.5039
▁portions	-11.5041
mobil	-11.5043
▁envelope	-11.5044
▁photograph	-11.5044
▁politicians	-11.5046
▁nerve	-11.5048
▁homo	-11.505
▁terrain	-11.5052
▁1859	-11.5052
▁brunswick	-11.5053
gren	-11.5055
▁basket	-11.5059
▁chairs	-11.5061
▁reflection	-11.5062
▁1971,	-11.5063
▁lease	-11.5064
beck	-11.5064
qi	-11.5068
▁appeals	-11.5071
▁oral	-11.5072
▁torpedo	-11.5073
mere	-11.5074
▁1857	-11.5075
▁cheap	-11.5075
▁virtually	-11.5076
ambi	-11.5076
▁retiring	-11.5081
▁rapper	-11.5081
▁qui	-11.5083
▁mona	-11.5083
▁mick	-11.5084
shin	-11.5088
▁criteria	-11.5088
▁armstrong	-11.5089
umi	-11.509
▁mug	-11.5093
sher	-11.5095
▁ribbon	-11.5095
▁gall	-11.5098
▁puzzle	-11.5099
fla	-11.5103
grand	-11.5103
▁theyre	-11.5106
bil	-11.5107
▁floors	-11.5108
▁edgar	-11.5109
▁twentieth	-11.5109
▁goalkeeper	-11.511
▁victories	-11.5111
▁1978,	-11.5113
▁papa	-11.5113
▁diplomat	-11.5114
▁princeton	-11.5115
ids	-11.5116
▁catalogue	-11.5117
hel	-11.5119
gene	-11.5119
▁scha	-11.512
▁lev	-11.512
▁bros	-11.512
▁swallow	-11.5122
▁dictionary	-11.5124
▁1976,	-11.5124
iere	-11.5124
▁til	-11.5126
▁kh	-11.513
▁intimate	-11.5134
▁crap	-11.5134
▁bail	-11.5135
▁interactive	-11.5136
▁terra	-11.5138
▁prophet	-11.5138
▁wingspan	-11.5139
ici	-11.514
▁sally	-11.514
call	-11.5147
▁manila	-11.5148
▁conducting	-11.5151
▁sharply	-11.5151
▁richardson	-11.5151
▁collegiate	-11.5152
▁sustainable	-11.5153
ania	-11.5155
▁essays	-11.5156
rna	-11.5157
▁mcdonald	-11.5162
phil	-11.5163
▁ugly	-11.5164
▁organize	-11.5167
▁intelligent	-11.5168
▁tourists	-11.5169
▁relatives	-11.5171
▁dagger	-11.5172
▁nationwide	-11.5174
specific	-11.5174
amo	-11.5174
▁swim	-11.5176
mol	-11.5176
▁lung	-11.5176
▁educator	-11.5177
▁geographic	-11.518
▁privacy	-11.518
▁enjoying	-11.518
▁sphere	-11.518
oxy	-11.518
▁ranges	-11.5182
▁maiden	-11.5183
▁triumph	-11.5183
▁sas	-11.5183
▁civilians	-11.5184
▁tr	-11.5184
▁crush	-11.5188
▁fraser	-11.5191
ische	-11.5192
▁insight	-11.5194
▁enable	-11.5198
▁investors	-11.5201
▁pir	-11.5202
▁allan	-11.5203
▁horrible	-11.5209
▁restrictions	-11.5209
▁hesitated	-11.5209
▁creator	-11.5209
▁supervisor	-11.5212
▁davies	-11.5213
▁archive	-11.5213
pd	-11.5215
▁entity	-11.5216
omo	-11.5218
▁tournaments	-11.5219
▁suburban	-11.5221
eyed	-11.5221
▁cherry	-11.5222
▁deny	-11.5223
▁brun	-11.5224
▁georgian	-11.5224
▁krishna	-11.5225
issa	-11.5227
▁ripped	-11.5227
▁desired	-11.5227
▁sec	-11.5228
oku	-11.5229
▁define	-11.523
quet	-11.5231
hum	-11.5231
▁rho	-11.5232
1963	-11.5232
▁trek	-11.5235
▁improving	-11.5241
▁civilization	-11.5242
▁daddy	-11.5243
▁nc	-11.5243
▁nag	-11.5244
▁rodriguez	-11.5248
▁curved	-11.5249
3/	-11.5251
▁kala	-11.5258
▁aggressive	-11.5258
▁aires	-11.5258
trop	-11.5264
▁jamaica	-11.5264
▁spit	-11.5265
▁abruptly	-11.5269
nine	-11.527
▁seated	-11.5272
▁cement	-11.5273
▁wol	-11.5275
▁freed	-11.5276
▁caps	-11.5277
ugh	-11.5278
▁beliefs	-11.5279
▁warn	-11.5279
▁lor	-11.528
2/	-11.528
▁tucked	-11.5281
▁ferdinand	-11.5284
▁hydrogen	-11.5289
▁theological	-11.5289
show	-11.5291
tham	-11.5291
▁embrace	-11.5292
▁punjab	-11.5292
▁stability	-11.5294
▁realizing	-11.5295
▁awkward	-11.5297
sometimes	-11.5298
▁dollar	-11.5299
▁butterfly	-11.5302
▁1973,	-11.5302
▁eventual	-11.5303
▁integral	-11.5303
▁compiled	-11.5303
▁dumb	-11.5305
▁flags	-11.5305
▁flo	-11.5307
▁comedian	-11.5308
▁ignoring	-11.5309
▁thread	-11.5309
anda	-11.5309
▁necessarily	-11.5313
shing	-11.5314
▁privately	-11.5316
▁pic	-11.5317
▁renewed	-11.5317
etic	-11.5317
▁loves	-11.5319
▁giovanni	-11.532
▁perception	-11.5323
▁breach	-11.5323
▁absorbed	-11.5324
▁assassination	-11.5325
▁thighs	-11.5326
▁closet	-11.5326
▁enabled	-11.533
position	-11.533
▁kills	-11.5332
▁capitol	-11.5332
▁hearts	-11.5333
▁dubbed	-11.5334
▁synonym	-11.5339
▁aboriginal	-11.5342
▁suburbs	-11.5347
▁proto	-11.5351
▁consequence	-11.5354
▁hin	-11.5358
▁ammunition	-11.5359
duct	-11.5361
▁fernando	-11.5362
▁moreover	-11.5362
▁elena	-11.5362
mil	-11.5364
lina	-11.5369
▁cylinder	-11.537
▁galaxy	-11.537
▁lighter	-11.5371
▁gravel	-11.5374
▁referendum	-11.5374
uci	-11.5375
▁arsenal	-11.5375
▁witnesses	-11.5378
▁carlo	-11.5379
▁peri	-11.5381
▁statute	-11.5381
bru	-11.5381
▁tuesday	-11.5385
▁ashley	-11.539
though	-11.5391
cola	-11.5391
whi	-11.5395
eye	-11.5397
code	-11.5399
▁chloe	-11.54
nn	-11.54
bahn	-11.5401
▁160	-11.5402
▁unexpected	-11.5402
▁speaks	-11.5402
▁scotia	-11.5402
▁painful	-11.5403
▁nm	-11.5404
▁arabia	-11.5407
▁que	-11.5407
▁doll	-11.5408
▁polo	-11.5408
▁deadly	-11.5408
hawk	-11.5408
▁presenter	-11.5408
▁edit	-11.5409
▁expanding	-11.541
dai	-11.5411
▁lei	-11.5412
lah	-11.5414
vier	-11.5419
▁monsters	-11.5421
▁dor	-11.5421
▁boarding	-11.5423
▁authorized	-11.5423
▁packed	-11.5424
▁duration	-11.5425
▁cardinals	-11.5426
▁insane	-11.5428
▁innovative	-11.5428
park	-11.543
mari	-11.5431
▁nicole	-11.5433
care	-11.5434
▁rep	-11.5434
▁displays	-11.5435
▁lawn	-11.5435
▁ordained	-11.5436
▁henderson	-11.5436
▁trustees	-11.5437
▁teenage	-11.5437
▁rivals	-11.5437
rox	-11.5438
▁flooding	-11.5438
▁pissed	-11.5439
▁mumbai	-11.5439
▁associates	-11.5441
▁tsu	-11.5443
▁44,	-11.5443
▁az	-11.5444
▁97	-11.5444
astic	-11.5446
▁claude	-11.5447
▁reserved	-11.5449
▁rotation	-11.545
▁sunlight	-11.545
sty	-11.5452
▁lutheran	-11.5455
▁pour	-11.5458
▁catching	-11.5459
▁emerge	-11.546
ucci	-11.5465
lac	-11.5468
otic	-11.5468
▁dodge	-11.5468
▁substance	-11.5469
▁smiles	-11.5469
▁buenos	-11.547
▁optical	-11.5471
brown	-11.5473
▁1967,	-11.5475
▁invention	-11.5476
▁panels	-11.5478
▁aesthetic	-11.5478
▁stepping	-11.5479
lux	-11.5479
verse	-11.5479
▁cuban	-11.5479
▁cooperative	-11.5483
▁width	-11.5483
▁gui	-11.5484
▁drops	-11.5484
▁buying	-11.5486
▁avoided	-11.5486
▁broadcasts	-11.5488
▁allegedly	-11.549
▁compensation	-11.5491
▁streams	-11.5491
▁potentially	-11.5496
▁shuttle	-11.5496
▁gibson	-11.5498
sho	-11.5498
hc	-11.5499
▁coll	-11.5499
▁cats	-11.5499
ume	-11.55
mag	-11.5504
▁habit	-11.5505
▁operators	-11.5507
▁prop	-11.5508
oper	-11.5508
▁powell	-11.5508
▁andrews	-11.5511
burgh	-11.5514
▁blair	-11.5515
▁theoretical	-11.5516
▁upgrade	-11.5516
▁peaceful	-11.5517
▁siblings	-11.5519
▁thermal	-11.552
▁concentrate	-11.5522
▁med	-11.5524
▁130	-11.5526
quarterfinals	-11.5527
▁prompted	-11.5527
▁tug	-11.5528
operative	-11.5528
▁plateau	-11.5532
ree	-11.5538
nath	-11.5538
▁particles	-11.5539
▁wagon	-11.554
guard	-11.5541
▁extraordinary	-11.5542
▁calvin	-11.5543
sai	-11.5545
▁teen	-11.5548
▁verb	-11.5548
▁burden	-11.555
▁miranda	-11.555
syn	-11.555
▁limp	-11.5551
▁gt	-11.5552
▁editing	-11.5552
▁headquartered	-11.5553
▁adopt	-11.5555
february	-11.5557
▁marina	-11.5562
▁brussels	-11.5564
▁flipped	-11.5564
▁geological	-11.5566
1945	-11.5567
1958	-11.557
▁frog	-11.557
▁excess	-11.5571
dec	-11.5572
▁6:	-11.5572
▁coral	-11.5572
▁argues	-11.5574
▁chelsea	-11.5575
▁sage	-11.5575
▁arched	-11.5577
▁assembled	-11.5577
cate	-11.5577
▁fraud	-11.5577
▁theorem	-11.5578
▁glared	-11.5578
mart	-11.5579
▁gavin	-11.558
▁targeted	-11.5581
▁goodbye	-11.5582
▁philosophical	-11.5583
other	-11.5584
▁milwaukee	-11.5588
▁celebrity	-11.559
▁divorced	-11.559
▁oct	-11.5593
zie	-11.5594
lash	-11.5595
cot	-11.5596
▁dimension	-11.5597
▁dominic	-11.5598
cock	-11.5599
▁faction	-11.5599
▁ports	-11.56
▁smelled	-11.5601
▁drinks	-11.5601
▁listing	-11.5602
▁michelle	-11.5602
tsu	-11.5603
sse	-11.5604
▁conjunction	-11.5605
▁mound	-11.5607
radi	-11.5608
▁surgeon	-11.5611
▁founders	-11.5611
▁bai	-11.5613
▁forgot	-11.5615
▁pyramid	-11.5616
▁jerk	-11.5618
▁rib	-11.5618
tec	-11.5619
▁sci	-11.562
▁durham	-11.5621
iga	-11.5622
▁1969,	-11.5622
▁trips	-11.5622
▁neg	-11.5624
▁secular	-11.5624
▁underwent	-11.5627
temp	-11.5627
dam	-11.5627
▁discovers	-11.5629
bill	-11.563
▁descended	-11.5631
sham	-11.5631
▁precious	-11.5632
▁predict	-11.5634
inus	-11.5636
▁playstation	-11.5637
word	-11.5638
1957	-11.5638
mund	-11.5642
▁nineteenth	-11.5643
▁quoted	-11.5647
▁imagination	-11.5653
▁pavilion	-11.5653
▁toilet	-11.5656
▁sac	-11.5656
fy	-11.5656
▁depends	-11.5658
cour	-11.566
▁poison	-11.5661
▁100,000	-11.5661
▁prosecutor	-11.5668
▁foul	-11.5669
ija	-11.5673
▁granite	-11.5673
eria	-11.5675
paul	-11.5675
▁alumni	-11.5676
▁uprising	-11.5676
▁spinning	-11.5677
dad	-11.5678
1959	-11.5678
▁fran	-11.5678
▁pursued	-11.5678
graph	-11.5679
▁lied	-11.5681
ache	-11.5681
▁performer	-11.5681
rai	-11.5682
hom	-11.5684
▁1855	-11.5684
▁eyebrow	-11.5687
▁92	-11.5689
pg	-11.5689
▁sponsor	-11.569
▁enlisted	-11.5693
ista	-11.5694
uous	-11.5696
▁discrimination	-11.57
equi	-11.57
▁varied	-11.57
sko	-11.5703
ement	-11.5703
ivity	-11.5704
▁bod	-11.5706
party	-11.5706
▁archer	-11.5706
yev	-11.5707
vil	-11.5709
him	-11.5713
▁luxury	-11.5717
lf	-11.5717
▁wit	-11.5718
▁cdp	-11.5718
▁disappointed	-11.5719
▁kr	-11.572
▁drawings	-11.5722
▁ari	-11.5724
▁platinum	-11.5726
girl	-11.5727
▁dominican	-11.5728
▁delegation	-11.5732
egan	-11.5733
▁rhode	-11.5734
▁activated	-11.5734
riv	-11.5734
▁stein	-11.5734
writer	-11.5736
▁dil	-11.5737
▁mam	-11.5738
▁compositions	-11.5739
▁drain	-11.574
▁knots	-11.574
▁1854	-11.5745
▁dev	-11.5746
▁dwell	-11.5747
▁youve	-11.5749
▁salon	-11.5749
ago	-11.5749
▁harp	-11.575
▁joshua	-11.5755
haven	-11.5755
▁lil	-11.5761
▁indies	-11.5762
iki	-11.5763
▁vent	-11.5764
rach	-11.5764
roman	-11.5766
▁crane	-11.5766
urs	-11.5767
▁sud	-11.5767
▁facilitate	-11.5768
▁withdrawn	-11.5769
▁presbyterian	-11.5769
▁spreading	-11.5769
shima	-11.577
▁commit	-11.577
lessly	-11.5771
▁seemingly	-11.5773
▁marion	-11.5773
▁neighbouring	-11.5773
▁examine	-11.5774
▁atomic	-11.5775
ign	-11.5777
▁dwarf	-11.5777
▁creates	-11.5778
▁canvas	-11.5778
▁amusement	-11.5781
▁infinite	-11.5781
grave	-11.5782
fly	-11.5784
▁mechanics	-11.5784
▁membrane	-11.5785
▁steering	-11.5786
▁feminist	-11.5788
▁distinguish	-11.579
▁dealt	-11.579
▁shepherd	-11.5792
ault	-11.5793
cata	-11.5794
▁nash	-11.5796
▁93	-11.5796
orient	-11.5799
▁heather	-11.5799
1956	-11.58
▁citation	-11.5801
▁luther	-11.5804
▁isle	-11.5804
talk	-11.5808
▁shoe	-11.5809
stown	-11.581
aca	-11.5811
▁lynch	-11.5813
▁tackle	-11.5814
▁cleaning	-11.5814
cell	-11.5823
▁westminster	-11.5823
▁katherine	-11.5826
▁mint	-11.5826
str	-11.5827
▁vin	-11.5829
▁filipino	-11.5829
▁betty	-11.5832
▁shaped	-11.5832
cop	-11.5835
▁yoshi	-11.5835
▁hurried	-11.5837
▁indianapolis	-11.5837
▁relax	-11.5838
eus	-11.5841
▁berth	-11.5841
▁alto	-11.5842
left	-11.5842
▁witnessed	-11.5844
tch	-11.5844
▁hometown	-11.5846
▁accidentally	-11.5847
iba	-11.5847
▁solely	-11.5847
▁nina	-11.5849
▁cp	-11.5849
brien	-11.585
disc	-11.5851
osi	-11.5854
aye	-11.5854
ass	-11.5854
dh	-11.5855
▁1941,	-11.5858
▁vietnamese	-11.5861
▁burton	-11.5861
body	-11.5861
▁sweep	-11.5862
▁inspection	-11.5864
hem	-11.5866
▁hardy	-11.5866
▁doc	-11.5868
▁82	-11.5869
▁maintains	-11.587
zing	-11.5871
▁tucker	-11.5871
▁textile	-11.5874
▁venues	-11.5876
▁kap	-11.5876
▁dante	-11.5876
▁outcome	-11.5878
▁milton	-11.5878
gn	-11.5879
▁potter	-11.5879
▁1942,	-11.5882
bah	-11.5887
mount	-11.5888
▁bron	-11.5889
jon	-11.5891
▁circus	-11.5891
▁novelist	-11.5891
▁moh	-11.5892
▁pump	-11.5895
▁89	-11.5896
▁bil	-11.5896
▁spiral	-11.5898
asse	-11.5899
▁1977,	-11.5902
▁batting	-11.5904
yuki	-11.5904
▁symbols	-11.5908
fen	-11.5909
▁larvae	-11.5909
▁bump	-11.5912
250	-11.5912
▁confession	-11.5916
▁lauren	-11.5917
▁icon	-11.5918
tile	-11.5919
▁varies	-11.5919
scher	-11.592
ndi	-11.5922
▁feat	-11.5923
rif	-11.5926
▁preference	-11.5926
▁healthcare	-11.5926
▁1849	-11.5928
▁threatening	-11.5928
arabic	-11.5933
ule	-11.5937
ias	-11.5937
▁anthology	-11.594
7/	-11.594
▁safely	-11.5943
fusion	-11.5943
tori	-11.5945
▁observations	-11.5945
▁determination	-11.5946
▁slavery	-11.5947
▁burke	-11.595
▁numbered	-11.5954
holm	-11.596
▁decrease	-11.596
▁boo	-11.5962
▁startled	-11.5962
▁doi	-11.5963
▁aerial	-11.5964
▁1965,	-11.5965
▁desperately	-11.5965
▁crop	-11.5966
eater	-11.5968
ono	-11.597
▁quan	-11.597
▁diving	-11.597
▁phenomenon	-11.5971
150	-11.5971
▁wicked	-11.5972
▁dy	-11.5972
▁hugo	-11.5974
▁lonely	-11.5975
powered	-11.5979
▁antenna	-11.5979
▁84	-11.598
▁sox	-11.5981
▁magnus	-11.5983
▁blaze	-11.5984
▁trucks	-11.5984
▁regent	-11.5985
▁varying	-11.599
▁lighthouse	-11.5991
▁resolve	-11.5997
▁observer	-11.6004
▁tate	-11.6005
▁priority	-11.6007
cht	-11.6009
▁melissa	-11.601
▁courtyard	-11.6012
ition	-11.6012
▁taka	-11.6015
plan	-11.6017
▁ladder	-11.602
▁drift	-11.6021
▁newport	-11.6023
▁esp	-11.6025
▁posts	-11.6026
storey	-11.6027
neck	-11.6028
▁81	-11.6028
ireland	-11.6028
▁rebecca	-11.6029
▁souls	-11.6031
▁emmy	-11.6032
▁neighbourhood	-11.6033
▁performers	-11.6033
▁peoples	-11.6034
▁groaned	-11.6035
▁strikes	-11.6037
cn	-11.6037
▁spe	-11.6037
▁tenor	-11.6039
▁afterward	-11.6041
▁cycling	-11.6042
▁checking	-11.6043
▁fry	-11.6043
▁consideration	-11.6043
▁cornwall	-11.6045
▁gripped	-11.6045
▁loser	-11.6047
▁paradise	-11.6052
▁maneuver	-11.6052
nea	-11.6052
▁rifles	-11.6054
▁traced	-11.6054
pla	-11.6054
▁lyon	-11.6056
1939	-11.6056
▁jess	-11.6056
gawa	-11.6057
▁remarkable	-11.6057
pie	-11.6058
▁nominee	-11.606
▁gasp	-11.606
pho	-11.6062
xia	-11.6064
iq	-11.6067
por	-11.6068
▁grabbing	-11.6068
▁uni	-11.6068
▁eden	-11.6069
▁dimensions	-11.6069
▁scope	-11.6069
▁mandate	-11.607
▁darling	-11.6071
▁125	-11.6071
▁ahmad	-11.6074
▁controller	-11.6074
1961	-11.6075
wu	-11.6079
ators	-11.6079
▁diary	-11.6081
▁adapt	-11.6083
▁tactics	-11.6083
▁hiv	-11.6084
▁counts	-11.6084
▁pitched	-11.6084
▁roller	-11.6087
bund	-11.6087
▁specified	-11.6087
▁salvador	-11.6087
▁79	-11.6089
▁broadcaster	-11.6091
▁cle	-11.6091
▁caesar	-11.6092
▁measuring	-11.6095
▁frankfurt	-11.6095
▁ludwig	-11.6095
▁rhe	-11.6102
▁harmony	-11.6104
▁journals	-11.6105
▁edwin	-11.6111
phan	-11.6113
▁screening	-11.6113
cic	-11.6114
▁sophia	-11.6114
▁veins	-11.6117
lang	-11.6118
▁carpenter	-11.6118
▁lancashire	-11.6122
▁relegation	-11.6122
▁economist	-11.6122
▁reasonable	-11.6124
▁accommodation	-11.6126
▁stunned	-11.6126
cious	-11.6126
▁upgraded	-11.6128
ister	-11.6128
▁ramp	-11.6132
vac	-11.6133
fest	-11.6133
▁candy	-11.6133
▁nonetheless	-11.6134
▁1851	-11.6138
▁nationally	-11.6139
wang	-11.6143
▁trusted	-11.6144
▁carson	-11.6146
▁monroe	-11.6147
▁destroyer	-11.615
▁alec	-11.6151
▁damned	-11.6151
hui	-11.6151
hausen	-11.6152
oph	-11.6152
hou	-11.6155
▁font	-11.6155
▁hasn	-11.6156
▁crater	-11.6158
▁fossil	-11.6158
sir	-11.616
▁wash	-11.616
gla	-11.6161
▁beg	-11.6163
▁casa	-11.6163
▁naga	-11.6164
▁revelation	-11.6166
▁kingston	-11.6167
flow	-11.6167
▁professionals	-11.6167
▁audiences	-11.6169
▁lace	-11.617
rea	-11.617
▁1858	-11.617
ushi	-11.6173
▁interim	-11.6174
▁ethics	-11.6175
ij	-11.6176
▁gab	-11.6176
▁interact	-11.6177
tim	-11.6177
▁saga	-11.6178
▁adoption	-11.6178
lant	-11.6179
lli	-11.618
author	-11.6181
▁140	-11.6181
▁deserve	-11.6182
▁workshops	-11.6183
liga	-11.6183
▁terrorist	-11.619
▁devi	-11.6191
▁whoever	-11.6192
▁reynolds	-11.6193
ilo	-11.6193
▁advised	-11.6196
ural	-11.6197
▁transported	-11.6197
▁tract	-11.62
▁ourselves	-11.62
ej	-11.6201
▁rainfall	-11.6205
▁slowed	-11.6206
▁demanding	-11.6208
▁comprising	-11.6208
▁morocco	-11.6209
▁rovers	-11.6209
▁whitney	-11.6209
▁cruel	-11.6213
▁shan	-11.6219
▁urged	-11.6219
selling	-11.6221
▁1980,	-11.6222
bian	-11.6223
▁sussex	-11.6224
around	-11.6226
ulating	-11.623
▁hire	-11.6232
▁vacant	-11.6232
wor	-11.6233
▁pakistani	-11.6234
bass	-11.6235
sts	-11.6238
mbe	-11.6243
▁chau	-11.6245
▁patricia	-11.6246
▁gorgeous	-11.6249
▁deposits	-11.6251
▁subdivision	-11.6256
▁loyalty	-11.6257
1952	-11.6257
▁cran	-11.6257
▁tit	-11.6257
pac	-11.6259
bis	-11.626
▁vacation	-11.626
▁developer	-11.6261
▁auxiliary	-11.6264
alia	-11.6264
▁playwright	-11.6264
▁enhanced	-11.6265
jak	-11.6266
▁molly	-11.6267
▁bleeding	-11.6269
except	-11.627
▁supporter	-11.6272
▁flora	-11.6273
tsch	-11.6273
jor	-11.6274
bir	-11.6274
▁reviewed	-11.6276
▁lawyers	-11.6278
▁footsteps	-11.6279
hari	-11.6281
hak	-11.6281
wl	-11.6282
▁meyer	-11.6283
▁collecting	-11.6283
▁rainbow	-11.6284
▁rolls	-11.6284
▁utility	-11.6288
▁specimens	-11.6288
▁cf	-11.6291
▁gale	-11.6293
▁brands	-11.6295
sport	-11.6295
▁copenhagen	-11.6299
▁legends	-11.63
▁accounting	-11.63
pil	-11.6301
ador	-11.6301
▁casual	-11.6302
▁cracked	-11.6303
▁horizontal	-11.6304
▁tristan	-11.6305
▁retire	-11.6307
▁sack	-11.6308
▁inhabited	-11.6308
phys	-11.6309
▁grief	-11.6311
ees	-11.6313
rani	-11.6315
▁mold	-11.6315
▁scales	-11.6317
▁controlling	-11.6317
ential	-11.6318
itt	-11.6319
▁falcon	-11.6322
▁kla	-11.6322
▁oslo	-11.6322
ography	-11.6323
▁kaz	-11.6324
▁2019	-11.6328
▁barnes	-11.633
▁tattoo	-11.633
▁glimpse	-11.6331
nay	-11.6332
▁backup	-11.6332
▁matching	-11.6334
▁tray	-11.6334
▁memphis	-11.6335
▁declare	-11.6335
tek	-11.6335
▁concerto	-11.6338
▁105	-11.6339
▁liver	-11.6339
▁virtue	-11.634
lick	-11.6342
▁surveillance	-11.6343
▁treasury	-11.6343
▁xavier	-11.6343
▁colored	-11.6343
wave	-11.6345
▁hid	-11.6346
▁palms	-11.6347
▁geneva	-11.6349
▁kei	-11.6349
dies	-11.6349
1951	-11.635
▁shining	-11.635
▁brigadier	-11.6351
▁swa	-11.6354
while	-11.6355
stay	-11.6357
▁brady	-11.6359
▁convent	-11.636
▁1964,	-11.636
▁wireless	-11.6362
▁gum	-11.6364
▁stamp	-11.6366
▁governed	-11.6369
▁jealous	-11.637
▁disabled	-11.6371
▁deliberately	-11.6371
▁acceptance	-11.6373
open	-11.6373
amp	-11.6373
▁reef	-11.6374
▁bonds	-11.6374
sberg	-11.6375
▁vicinity	-11.6375
▁immortal	-11.6378
▁varieties	-11.6379
loo	-11.638
pv	-11.6382
lana	-11.6382
▁developers	-11.6385
tip	-11.639
▁bassist	-11.6391
people	-11.6391
▁findings	-11.6392
▁prevention	-11.6392
▁pam	-11.6396
▁brows	-11.6398
▁observatory	-11.6399
▁probability	-11.6399
▁abby	-11.6399
▁settling	-11.6401
ingen	-11.6404
▁bits	-11.6405
▁swords	-11.6407
mig	-11.641
▁kel	-11.6411
fre	-11.6412
kovic	-11.6412
▁insects	-11.6416
▁classroom	-11.6417
▁morrison	-11.6417
▁wade	-11.6419
▁troop	-11.642
▁webb	-11.642
▁bind	-11.6422
▁bundle	-11.6422
▁onwards	-11.6422
kas	-11.6422
director	-11.6422
▁refuse	-11.6424
▁1856	-11.6426
▁canterbury	-11.6427
▁klein	-11.643
▁squeeze	-11.6431
▁tilted	-11.6431
comb	-11.6432
▁sooner	-11.6432
▁randy	-11.6434
plane	-11.6434
▁joey	-11.6436
▁capabilities	-11.6439
▁nun	-11.6439
▁garrett	-11.644
▁gin	-11.6443
▁ramon	-11.6443
▁elderly	-11.6445
igo	-11.6445
▁bomber	-11.6446
▁baha	-11.6447
▁inquiry	-11.6448
▁helm	-11.6449
cid	-11.6452
▁wreck	-11.6453
▁lens	-11.6454
1955	-11.6456
▁gable	-11.6458
▁explaining	-11.6462
▁walt	-11.6463
▁tun	-11.6464
▁91	-11.6464
fon	-11.6466
chlor	-11.6467
▁dh	-11.6467
▁mural	-11.6468
▁ibm	-11.6468
▁ahmed	-11.6468
▁ein	-11.6469
▁copa	-11.647
▁dried	-11.6474
▁smoking	-11.6476
▁enrollment	-11.6476
▁gentleman	-11.6476
▁scrap	-11.6477
hit	-11.6478
▁estimate	-11.6479
▁rex	-11.6483
▁orientation	-11.6484
▁furious	-11.6485
▁hopkins	-11.6488
▁anxiety	-11.6492
▁rab	-11.6493
▁kro	-11.6493
▁allegations	-11.6494
▁scho	-11.6494
▁1852	-11.6496
▁nicolas	-11.6496
▁shifting	-11.6499
▁alexandria	-11.6499
▁rack	-11.65
▁jace	-11.65
▁considerably	-11.6501
▁saddle	-11.6502
▁jag	-11.6503
▁apartments	-11.6507
vene	-11.6508
▁heated	-11.6509
▁confirm	-11.651
▁din	-11.6512
▁pounding	-11.6513
ws	-11.6513
▁cloak	-11.6514
▁83	-11.6514
▁87	-11.6515
▁strategies	-11.6516
▁dozens	-11.6517
50,000	-11.652
▁invite	-11.6521
▁wizard	-11.6522
stick	-11.6523
▁finale	-11.6524
gold	-11.6524
note	-11.6528
▁majesty	-11.6528
▁stumbled	-11.653
▁pinyin	-11.6533
▁cohen	-11.6533
▁mora	-11.6534
▁rises	-11.6536
▁incredible	-11.6537
rh	-11.6538
900	-11.6539
kun	-11.6541
▁yacht	-11.6541
▁mentions	-11.6543
▁frown	-11.6544
▁staged	-11.6544
▁lone	-11.6545
▁pregnancy	-11.6545
lei	-11.6545
▁avoiding	-11.6545
print	-11.6548
▁fuji	-11.6548
clu	-11.6548
▁conspiracy	-11.6549
att	-11.6549
▁freestyle	-11.6549
3,000	-11.655
▁gerard	-11.655
jet	-11.655
▁shiva	-11.655
▁tickets	-11.6553
▁cyprus	-11.6553
▁expelled	-11.6553
cet	-11.6553
lander	-11.6554
▁ballot	-11.6556
▁sy	-11.6556
▁ambulance	-11.6557
▁fried	-11.6559
lak	-11.6562
▁reunion	-11.6563
▁cyclone	-11.6563
serv	-11.6565
▁$6	-11.6568
▁magnitude	-11.6569
▁monks	-11.6569
case	-11.657
1954	-11.657
▁rescued	-11.657
▁malta	-11.6572
▁directing	-11.6572
▁blur	-11.6573
▁topped	-11.6574
▁sep	-11.6574
▁dove	-11.6576
▁guru	-11.6576
gol	-11.6581
▁leap	-11.6581
▁equality	-11.6583
▁passport	-11.6583
▁gifts	-11.6585
▁sunshine	-11.6586
▁sleeve	-11.6587
▁deals	-11.6588
▁au	-11.659
▁conflicts	-11.659
▁whale	-11.659
struct	-11.659
▁zoe	-11.6593
▁cruiser	-11.6596
bos	-11.6597
guin	-11.6597
quest	-11.6597
▁cali	-11.6598
▁tracking	-11.6599
▁portraits	-11.6599
▁3,000	-11.66
▁fantastic	-11.66
▁loudly	-11.6601
▁theodore	-11.6604
rv	-11.6604
▁jets	-11.6609
▁inform	-11.6609
gc	-11.661
lm	-11.6613
▁anonymous	-11.6614
corp	-11.6615
▁tee	-11.6615
▁1943,	-11.6617
ult	-11.6617
▁strictly	-11.6617
rama	-11.6617
▁nano	-11.6619
▁planes	-11.6619
▁moses	-11.6622
178	-11.6624
core	-11.6625
▁synthesis	-11.6627
▁plantation	-11.6627
▁coo	-11.6627
▁possess	-11.6629
▁gwen	-11.663
▁technological	-11.6631
icus	-11.6632
▁lithuania	-11.6633
▁juice	-11.6636
▁tampa	-11.6637
▁hunters	-11.6637
▁unlikely	-11.664
lem	-11.6641
▁clare	-11.6642
▁voltage	-11.6644
iu	-11.6644
130	-11.6645
▁darker	-11.6646
▁interpreted	-11.6646
▁upright	-11.6647
▁drives	-11.6648
zio	-11.6649
▁axe	-11.665
▁trails	-11.6651
▁bradford	-11.6653
40,000	-11.6653
ghan	-11.6654
▁downstairs	-11.6655
git	-11.6656
▁condemned	-11.6657
▁1963,	-11.6659
cup	-11.6659
▁reactions	-11.666
▁ghana	-11.6661
▁acclaimed	-11.6662
▁vicar	-11.6664
▁vegetation	-11.6668
▁hanna	-11.6668
▁arcade	-11.6669
ril	-11.667
▁abandon	-11.667
ote	-11.667
ush	-11.6672
▁boost	-11.6672
▁rigid	-11.6673
▁crucial	-11.6673
road	-11.6674
▁gage	-11.6674
cite	-11.6675
▁glancing	-11.6676
▁exploded	-11.6677
▁mistress	-11.6677
▁occurring	-11.6677
▁1966,	-11.6678
▁adviser	-11.6678
▁youll	-11.6679
▁custody	-11.668
▁dorothy	-11.668
▁lately	-11.6683
isch	-11.6684
▁katie	-11.6685
▁fees	-11.6687
▁jer	-11.6687
▁certification	-11.6688
▁rao	-11.6689
▁owe	-11.6692
▁cigarette	-11.6692
▁withdrawal	-11.6692
▁bella	-11.6693
▁detachment	-11.6693
▁achievements	-11.6693
pala	-11.6696
▁brit	-11.6696
▁enterprises	-11.6696
uring	-11.6696
rell	-11.6697
▁thesis	-11.6697
▁robertson	-11.6704
size	-11.6705
▁lancaster	-11.6705
▁instructed	-11.6705
▁pes	-11.6707
▁janet	-11.6707
▁facts	-11.6707
cos	-11.6708
greek	-11.6708
▁conferences	-11.6708
hap	-11.6708
▁regain	-11.6709
standing	-11.671
▁promising	-11.6713
▁dag	-11.6714
▁bombs	-11.6716
▁yuan	-11.6717
▁maple	-11.6717
▁julius	-11.6717
▁drifted	-11.6719
▁maya	-11.6721
wise	-11.6722
▁deployment	-11.6722
▁sneak	-11.6723
kari	-11.6723
odor	-11.6724
cote	-11.6724
▁abbot	-11.6725
tale	-11.6725
▁wisdom	-11.6726
▁travis	-11.6727
hya	-11.6728
▁1970,	-11.6728
cie	-11.6729
fair	-11.6729
▁opposing	-11.673
▁accordance	-11.673
▁geographical	-11.673
lier	-11.6736
titled	-11.6738
▁proximity	-11.6738
1953	-11.6739
▁drill	-11.6744
▁50%	-11.6747
▁cheer	-11.6747
▁destroying	-11.6749
▁hotels	-11.6749
kers	-11.675
amine	-11.675
1940	-11.6752
▁observe	-11.6758
▁mira	-11.6761
▁stole	-11.6763
▁mock	-11.6763
▁currency	-11.6763
▁ruined	-11.6763
▁1853	-11.6766
▁plaque	-11.6768
▁investigations	-11.6769
▁coordinator	-11.6771
▁cau	-11.6772
azi	-11.6773
wei	-11.6773
▁rubbing	-11.6776
fuck	-11.6779
▁motors	-11.6779
▁stud	-11.6779
▁canoe	-11.6779
▁imprisonment	-11.678
▁evident	-11.678
▁1846	-11.6781
▁legally	-11.6781
responsibilities	-11.6784
▁zen	-11.6784
▁estimates	-11.6785
▁elimination	-11.6785
▁activists	-11.6787
▁jill	-11.6787
▁suspicious	-11.6788
▁jorge	-11.679
nard	-11.6795
kash	-11.6795
▁chiefs	-11.6797
▁marcel	-11.6798
▁poets	-11.6798
▁gp	-11.6799
miya	-11.6799
▁pronounced	-11.68
lun	-11.68
luc	-11.6802
test	-11.6804
▁ark	-11.6804
▁disappointment	-11.6805
▁vanished	-11.6805
▁anthem	-11.6806
▁centres	-11.6806
▁94	-11.6809
think	-11.6809
5/	-11.681
▁skating	-11.681
▁arguments	-11.681
being	-11.6812
▁cia	-11.6813
▁elliott	-11.6813
▁moist	-11.6813
▁competitors	-11.6815
▁silva	-11.6815
▁illusion	-11.6817
saw	-11.6821
▁nintendo	-11.6821
pati	-11.6821
▁lesbian	-11.6822
▁tha	-11.6822
▁flies	-11.6822
▁albania	-11.6825
rill	-11.6826
▁lounge	-11.6826
▁zurich	-11.6826
▁hayes	-11.6828
▁intact	-11.6828
▁1939,	-11.6829
rier	-11.6831
177	-11.6832
▁wilderness	-11.6834
latin	-11.6836
▁helena	-11.6837
section	-11.6837
aldo	-11.6838
▁clara	-11.6841
▁viii	-11.6842
▁centered	-11.6842
▁maxim	-11.6843
▁thigh	-11.6843
▁nightmare	-11.6846
▁juvenile	-11.6847
▁portfolio	-11.6847
▁chick	-11.6847
zed	-11.6847
▁chuckled	-11.6849
▁advances	-11.6851
▁arose	-11.6852
▁catalog	-11.6859
oba	-11.6859
▁headline	-11.6861
▁riot	-11.6862
▁saskatchewan	-11.6863
dina	-11.6865
▁indie	-11.6865
lite	-11.6865
▁harvest	-11.6867
rink	-11.6867
▁mach	-11.6867
▁marched	-11.6867
tani	-11.6867
▁crawford	-11.6872
▁marines	-11.6872
240	-11.6874
▁cecil	-11.6875
▁cum	-11.6878
▁joins	-11.6879
▁demonstration	-11.6883
▁poorly	-11.6883
1930	-11.6885
▁86	-11.6886
▁istanbul	-11.6889
▁robe	-11.6891
▁sunset	-11.6891
bry	-11.6895
▁adds	-11.6895
▁valentine	-11.6897
▁twitter	-11.6897
▁idaho	-11.6898
▁shri	-11.6898
▁computing	-11.6901
▁gazette	-11.6906
▁eliminate	-11.6907
▁pon	-11.6907
playing	-11.6907
stat	-11.6908
hul	-11.6908
▁brock	-11.691
▁phillip	-11.6911
▁contrary	-11.6911
osh	-11.6912
▁hosting	-11.6915
▁oath	-11.6915
rose	-11.6917
coat	-11.6918
lg	-11.6919
▁associations	-11.6921
▁petr	-11.6923
▁marking	-11.6924
▁frustrated	-11.6927
▁barb	-11.6929
read	-11.693
▁mitch	-11.693
ott	-11.6931
▁rue	-11.6932
nl	-11.6934
ines	-11.6935
▁scouts	-11.6937
▁nominations	-11.6937
▁len	-11.6937
▁firms	-11.6939
▁raz	-11.694
▁gua	-11.6941
▁iceland	-11.6943
▁inclusion	-11.6944
▁wagner	-11.6944
zal	-11.6944
arg	-11.6948
▁withdraw	-11.6949
▁boeing	-11.6952
▁armenia	-11.6953
▁wage	-11.6955
▁kul	-11.6956
▁satisfaction	-11.6956
pod	-11.6957
jah	-11.6959
▁millennium	-11.696
▁trembling	-11.6961
▁cardiff	-11.6961
▁locality	-11.6962
▁brig	-11.697
▁grasp	-11.697
▁winston	-11.6971
▁sinking	-11.6972
▁kho	-11.6972
hh	-11.6973
▁surrey	-11.6978
▁qing	-11.6979
▁pizza	-11.6979
▁wan	-11.698
▁patriarch	-11.6981
▁irregular	-11.6981
▁pru	-11.6982
▁penny	-11.6983
▁hostile	-11.6984
▁bruno	-11.6984
▁archived	-11.6986
rz	-11.6986
▁correspondent	-11.6987
▁repairs	-11.6988
france	-11.6989
sworth	-11.6989
▁gir	-11.6989
▁bombardment	-11.699
▁velocity	-11.699
▁genuine	-11.6991
anza	-11.6992
▁surge	-11.6993
▁viola	-11.6994
owner	-11.6994
methyl	-11.6995
▁renovation	-11.6995
maz	-11.6996
▁glare	-11.7
▁caleb	-11.7
▁partition	-11.7
lach	-11.7002
▁biblical	-11.7003
▁separately	-11.7005
▁1940,	-11.7008
baum	-11.7009
ear	-11.7012
nish	-11.7013
▁res	-11.7015
▁zach	-11.7018
▁continent	-11.7018
▁chapters	-11.7021
som	-11.7022
system	-11.7023
▁gala	-11.7023
ended	-11.7024
iest	-11.7025
▁mcg	-11.7026
1949	-11.7026
▁consolidated	-11.7026
stand	-11.7028
vision	-11.7034
hip	-11.7034
▁enhance	-11.7035
▁rosen	-11.7035
▁endangered	-11.7036
▁reverend	-11.7038
▁traces	-11.7039
does	-11.704
sei	-11.7041
country	-11.7041
▁bankruptcy	-11.7042
▁dread	-11.7043
▁trash	-11.7044
▁decay	-11.7044
▁promotional	-11.7044
▁pel	-11.7045
▁hindi	-11.7046
itch	-11.7047
▁jude	-11.7047
▁175	-11.7048
▁silly	-11.705
spanish	-11.705
bla	-11.7051
▁willow	-11.7052
▁jackie	-11.7055
▁mw	-11.7055
mish	-11.7056
▁terrified	-11.7059
sian	-11.706
▁woo	-11.7061
▁holden	-11.7063
▁faithful	-11.7066
▁openly	-11.7066
▁plymouth	-11.7067
▁colon	-11.707
cycl	-11.7071
▁staircase	-11.7071
▁batteries	-11.7072
nne	-11.7073
▁predicted	-11.7073
▁hale	-11.7074
▁fiji	-11.7075
▁placement	-11.7077
▁1847	-11.7077
▁calgary	-11.708
nna	-11.7081
tors	-11.7082
▁yell	-11.7082
▁premiership	-11.7082
▁pha	-11.7083
▁bias	-11.7085
▁transmitter	-11.7086
▁windsor	-11.7086
▁calculated	-11.7087
▁velvet	-11.7089
▁imposed	-11.709
▁zhu	-11.7091
▁everyday	-11.7092
clock	-11.7092
dah	-11.7093
lain	-11.7093
▁santo	-11.7094
▁lem	-11.7096
▁sofa	-11.7097
▁finite	-11.7099
▁plea	-11.7099
cephal	-11.7102
loc	-11.7102
▁captive	-11.7103
▁carroll	-11.7105
▁draws	-11.7107
eki	-11.7107
▁mk	-11.7108
lift	-11.7109
▁conscious	-11.711
cies	-11.711
▁supervision	-11.7111
▁cove	-11.7115
▁pose	-11.7117
▁ruby	-11.7117
fle	-11.7117
charge	-11.7117
▁lineup	-11.7119
▁blessed	-11.7119
▁masa	-11.712
rap	-11.7122
arn	-11.7123
lb	-11.7124
▁flooded	-11.7126
ancy	-11.7127
market	-11.713
▁spi	-11.713
▁publish	-11.713
▁frightened	-11.713
▁nato	-11.7131
▁gown	-11.7134
bang	-11.7136
▁nicknamed	-11.7137
▁disco	-11.7138
▁equity	-11.7141
lation	-11.7141
sat	-11.7144
lal	-11.7145
▁wax	-11.7146
▁collector	-11.7147
▁fragments	-11.7148
▁complement	-11.7149
station	-11.7149
▁click	-11.715
▁stripped	-11.715
▁cl	-11.7152
▁shar	-11.7153
▁roe	-11.7157
▁delegates	-11.7159
▁machinery	-11.7159
▁demonstrate	-11.7159
▁echoed	-11.7159
short	-11.716
elia	-11.716
hound	-11.7161
dur	-11.7161
▁fil	-11.7164
▁sealed	-11.7166
▁challenging	-11.7166
▁nacional	-11.7166
▁propaganda	-11.7166
boo	-11.7167
sted	-11.7169
▁negro	-11.7169
▁respected	-11.7171
▁brighton	-11.7172
▁uh	-11.7173
▁refuses	-11.7173
▁secretly	-11.7174
▁disappear	-11.7174
▁martinez	-11.7174
mouth	-11.7175
▁proposals	-11.7176
metre	-11.7179
▁orlando	-11.718
bai	-11.718
▁1962,	-11.718
ifying	-11.718
▁visitor	-11.7183
▁balloon	-11.7185
▁rendered	-11.7187
▁easter	-11.7191
▁sounding	-11.7191
▁exploit	-11.7191
▁cello	-11.7194
▁revived	-11.7194
▁choosing	-11.7197
colored	-11.7199
▁fraction	-11.7199
young	-11.72
▁finest	-11.7201
▁allmusic	-11.7205
▁translator	-11.7205
prop	-11.7206
▁wen	-11.7206
loy	-11.7209
▁hostage	-11.7209
▁accepting	-11.721
▁gonzalez	-11.7214
▁104	-11.7216
▁conceived	-11.7216
version	-11.7218
▁licence	-11.7219
▁audition	-11.7222
▁cute	-11.7226
sweet	-11.7227
wash	-11.7228
lob	-11.7228
▁meg	-11.7228
▁bounded	-11.723
▁prosecution	-11.7232
▁assert	-11.7232
▁courthouse	-11.7232
▁suggestion	-11.7234
▁rector	-11.7235
▁wickets	-11.7236
▁102	-11.7237
rium	-11.7238
walk	-11.724
▁holdings	-11.7241
▁bak	-11.7241
▁prairie	-11.7245
tered	-11.7246
▁embarrassed	-11.7247
dus	-11.7248
▁plug	-11.7249
▁submission	-11.725
vp	-11.7251
▁salary	-11.7253
▁simulation	-11.7254
phe	-11.7254
channel	-11.7255
▁naming	-11.7256
▁stance	-11.7256
erton	-11.7256
▁consumers	-11.7259
▁oblast	-11.7259
cion	-11.7261
▁hugged	-11.7263
▁consumed	-11.7263
▁bubble	-11.7264
▁recreational	-11.7267
▁isabella	-11.7268
▁yours	-11.7268
▁odds	-11.7269
▁xu	-11.727
▁touchdowns	-11.7273
inae	-11.7274
▁arctic	-11.7275
230	-11.7275
▁1845	-11.7277
jal	-11.7277
▁cops	-11.7279
▁rene	-11.728
▁belfast	-11.728
ern	-11.7286
179	-11.7286
▁700	-11.7286
▁bacteria	-11.7287
▁puppet	-11.7289
▁murders	-11.729
▁mori	-11.729
▁tackles	-11.7291
▁rig	-11.7292
▁liber	-11.7292
▁extract	-11.7295
▁cue	-11.7295
▁compounds	-11.7296
mul	-11.7299
▁kru	-11.73
iza	-11.73
▁gaming	-11.7301
wee	-11.7301
▁vera	-11.7302
▁honestly	-11.7302
boro	-11.7302
▁uss	-11.7302
▁underlying	-11.7302
▁hello	-11.7303
oko	-11.7304
▁willie	-11.7304
▁choices	-11.7304
▁politically	-11.7306
▁classics	-11.7308
▁inventor	-11.731
cri	-11.731
cun	-11.7311
▁daisy	-11.7311
nta	-11.7312
1946	-11.7313
▁eternal	-11.7315
▁discussing	-11.7315
chal	-11.7318
bio	-11.7318
sbury	-11.7319
dun	-11.7319
▁syl	-11.7319
▁stereo	-11.732
▁noon	-11.732
▁artifacts	-11.732
aco	-11.7322
oro	-11.7325
▁algebra	-11.7326
ways	-11.7326
isse	-11.7326
▁puff	-11.7328
yana	-11.7328
▁digging	-11.7329
▁trademark	-11.7333
▁criticised	-11.7334
dhar	-11.7337
kind	-11.7338
▁rey	-11.7338
▁atop	-11.7339
▁genera	-11.734
▁bot	-11.7341
▁sworn	-11.7346
ced	-11.7346
▁stunt	-11.7347
▁macdonald	-11.735
neill	-11.7351
▁interviewed	-11.7351
$1	-11.7351
▁laps	-11.7354
▁ribs	-11.7354
▁106	-11.7356
▁astro	-11.7356
▁wanna	-11.7356
eme	-11.7357
▁striker	-11.7359
▁aisle	-11.7361
nant	-11.7361
▁noting	-11.7363
▁merchants	-11.7363
pid	-11.7365
storm	-11.7367
▁belgrade	-11.7368
▁tips	-11.7371
hun	-11.7371
▁roar	-11.7371
iso	-11.7373
vita	-11.7374
cav	-11.7374
cel	-11.7376
▁sunny	-11.7377
▁empress	-11.7377
▁agrees	-11.7378
nat	-11.7379
lets	-11.7379
etto	-11.7379
▁20,000	-11.738
▁unions	-11.738
jiang	-11.738
▁nave	-11.7381
▁glowing	-11.7382
▁resolved	-11.7382
▁tumor	-11.7382
▁bos	-11.7384
155	-11.7384
▁smallest	-11.7385
▁iris	-11.7386
▁torch	-11.7386
▁1500	-11.7387
▁senses	-11.7388
played	-11.739
▁albany	-11.7391
▁slopes	-11.7391
dz	-11.7392
▁subtle	-11.7393
▁antarctic	-11.7394
▁punish	-11.7394
▁duchess	-11.7394
▁1812	-11.7395
▁variants	-11.7396
▁boulder	-11.7399
▁nobel	-11.7399
▁froze	-11.7401
▁chronic	-11.7402
▁salmon	-11.7404
sio	-11.7409
165	-11.7409
▁freeway	-11.7412
▁gastropod	-11.7412
▁jonas	-11.7413
croft	-11.7413
lake	-11.7414
▁cedar	-11.7415
▁fists	-11.7415
▁cone	-11.7415
▁dunn	-11.7416
established	-11.7418
riz	-11.7419
▁electron	-11.742
ruff	-11.7422
▁poles	-11.7424
▁knot	-11.7425
phor	-11.7425
▁manitoba	-11.7425
▁attain	-11.7426
▁teenager	-11.7427
▁eleanor	-11.743
onne	-11.743
▁bac	-11.7433
▁update	-11.7434
▁senators	-11.7435
▁researcher	-11.7436
comp	-11.744
rung	-11.744
182	-11.7441
wil	-11.7443
▁lea	-11.7446
▁lam	-11.7446
▁tooth	-11.7447
▁strongest	-11.7448
▁populated	-11.7448
▁rhine	-11.7448
ographic	-11.7448
▁precise	-11.7449
make	-11.7449
▁entrepreneur	-11.745
▁fusion	-11.745
special	-11.745
holders	-11.7452
aru	-11.7452
1920	-11.7454
rino	-11.7458
ulation	-11.746
pdf	-11.7465
▁boris	-11.7466
▁composers	-11.7467
▁upward	-11.7467
▁sup	-11.7468
radio	-11.7469
string	-11.747
▁sept	-11.7472
▁sudan	-11.7473
▁ussr	-11.7473
ump	-11.7474
▁remembering	-11.7474
▁lovers	-11.7474
▁reads	-11.7479
▁blend	-11.7482
▁discussions	-11.7482
▁highland	-11.7483
▁alexandra	-11.7483
▁reactor	-11.7485
▁renovated	-11.7491
▁sharon	-11.7492
▁councillor	-11.7493
▁consulting	-11.7494
gur	-11.7494
▁rum	-11.7496
mala	-11.7497
▁vor	-11.7497
onic	-11.7497
▁1961,	-11.7497
▁wh	-11.7497
▁perez	-11.7501
▁luxembourg	-11.7501
▁sensed	-11.7502
electric	-11.7503
▁proceed	-11.7503
▁nicola	-11.7503
▁outline	-11.7507
▁payments	-11.7508
▁1948,	-11.751
▁ankle	-11.7512
▁cai	-11.7512
1948	-11.7513
▁infected	-11.7515
taking	-11.7515
▁pound	-11.7516
▁dem	-11.7517
▁owl	-11.7518
▁dol	-11.7519
clair	-11.752
▁sequences	-11.752
▁lumber	-11.7521
tuck	-11.7522
▁deutsche	-11.7522
▁homeland	-11.7523
▁airing	-11.7524
▁puts	-11.7525
▁nationality	-11.7528
▁anybody	-11.7529
▁manuscripts	-11.7529
▁bul	-11.7529
▁neighbors	-11.753
▁conrad	-11.7531
▁est	-11.7531
▁messenger	-11.7533
lio	-11.7533
▁aids	-11.7534
evo	-11.7534
▁nails	-11.7536
▁appoint	-11.7538
uit	-11.7538
▁acute	-11.7539
▁counting	-11.7539
zion	-11.754
rana	-11.7544
▁1947,	-11.7544
▁wrestler	-11.7545
▁paw	-11.7547
▁rhodes	-11.7548
▁spl	-11.7549
dul	-11.7549
▁teammate	-11.7549
▁consensus	-11.7551
▁altogether	-11.7552
kom	-11.7553
rag	-11.7555
▁sv	-11.7555
▁darwin	-11.7556
▁deciding	-11.756
▁tugged	-11.756
▁rankings	-11.7562
▁apprentice	-11.7564
▁supernatural	-11.7565
▁1820	-11.7566
▁dishes	-11.7567
▁tapped	-11.7567
▁scorer	-11.7569
▁swimmer	-11.7571
▁sovereign	-11.7572
▁barracks	-11.7573
▁knocking	-11.7574
▁interactions	-11.7576
▁zones	-11.7578
▁edmonton	-11.7578
▁wishing	-11.7578
▁kicking	-11.7578
▁ernst	-11.7579
▁alpine	-11.7581
oso	-11.7581
▁subway	-11.7584
▁turk	-11.7585
kl	-11.7587
▁depicting	-11.7588
▁contestants	-11.7592
▁tetra	-11.7593
kova	-11.7594
hell	-11.7594
▁santos	-11.7597
▁provisional	-11.7597
▁gustav	-11.7598
▁sidewalk	-11.76
▁viewing	-11.76
▁richards	-11.76
▁environments	-11.7602
kow	-11.7602
sten	-11.7602
▁abd	-11.7604
▁nail	-11.7606
▁petro	-11.7607
▁explored	-11.7607
▁treasurer	-11.7608
▁sunk	-11.7608
sign	-11.7609
teen	-11.7611
listed	-11.7611
ete	-11.7611
▁ecuador	-11.7612
stream	-11.7612
▁flown	-11.7613
blood	-11.7613
▁halifax	-11.7614
▁hypothesis	-11.7614
▁matched	-11.7615
▁convey	-11.7616
uti	-11.7619
simplified	-11.7623
▁crushed	-11.7626
▁accuracy	-11.7628
▁destiny	-11.7628
▁meredith	-11.7628
1936	-11.763
▁premises	-11.7631
▁funk	-11.7633
▁overwhelming	-11.7635
▁agenda	-11.7636
stre	-11.7637
▁slovenia	-11.7637
▁pip	-11.7638
▁asteroid	-11.7639
color	-11.7639
bid	-11.7642
▁jab	-11.7643
▁chances	-11.7645
▁prohibited	-11.7646
child	-11.7647
▁denis	-11.7647
▁rivalry	-11.765
▁indication	-11.765
▁valve	-11.7653
▁spelling	-11.7655
▁unclear	-11.7655
shore	-11.7657
▁rows	-11.7658
bes	-11.7659
▁freshman	-11.7659
▁freely	-11.7662
enne	-11.7662
▁delegate	-11.7663
aries	-11.7663
borne	-11.7665
▁sab	-11.7665
▁thy	-11.7667
▁corrupt	-11.7667
▁cubic	-11.7668
▁espn	-11.767
▁sala	-11.767
▁nadu	-11.767
▁rand	-11.7672
▁surname	-11.7673
large	-11.7673
aran	-11.7675
ops	-11.7676
▁skilled	-11.7677
▁hector	-11.7679
▁speedway	-11.768
▁spill	-11.768
▁collision	-11.7682
▁geography	-11.7683
hk	-11.7684
sell	-11.7685
▁revision	-11.7686
▁expense	-11.7686
running	-11.7687
plex	-11.7689
▁fires	-11.7689
▁103	-11.769
▁strap	-11.769
▁stint	-11.7691
▁fitness	-11.7693
zong	-11.7693
▁wives	-11.7696
▁accompanying	-11.7697
khar	-11.7697
uan	-11.77
▁babe	-11.77
▁tracy	-11.7701
▁oriental	-11.7702
▁endless	-11.7704
▁raiders	-11.7705
▁ag	-11.7705
116	-11.7706
▁recurring	-11.7706
▁claws	-11.7709
▁learns	-11.7709
▁advancing	-11.771
4,000	-11.7711
esta	-11.7711
▁sends	-11.7712
▁battalions	-11.7714
▁sham	-11.7715
▁moan	-11.7717
▁rectangular	-11.7719
▁stained	-11.7721
gger	-11.7724
▁donna	-11.7724
▁codes	-11.7727
▁guatemala	-11.7728
▁sanchez	-11.7728
▁threshold	-11.7728
lop	-11.7729
▁surrendered	-11.7729
▁void	-11.773
dding	-11.773
▁bullets	-11.773
▁mentally	-11.7732
isi	-11.7732
▁forbidden	-11.7733
▁popped	-11.7735
dling	-11.774
▁aftermath	-11.7741
▁likewise	-11.7742
▁basically	-11.7742
▁ple	-11.7744
▁leisure	-11.7746
operation	-11.7747
ghi	-11.7747
▁menu	-11.7747
▁deposit	-11.7751
▁fade	-11.7751
▁decreased	-11.7752
▁committees	-11.7755
▁angela	-11.7758
▁springfield	-11.7758
production	-11.776
evich	-11.7761
▁gris	-11.7762
▁discharge	-11.7764
divi	-11.7764
▁rafael	-11.7765
▁ditch	-11.7766
▁hos	-11.7767
▁differ	-11.7768
▁armored	-11.7768
▁georg	-11.7768
▁blades	-11.7769
▁reliable	-11.7769
▁entries	-11.7769
gb	-11.777
210	-11.777
▁munster	-11.7771
▁questioning	-11.7771
▁lesson	-11.7776
▁1946,	-11.7776
▁plum	-11.7779
flower	-11.778
nf	-11.7781
▁walsh	-11.7781
▁timothy	-11.7783
▁bce	-11.7784
haired	-11.7784
▁rude	-11.7784
▁horns	-11.7785
eira	-11.779
dong	-11.779
▁zimbabwe	-11.7792
▁abortion	-11.7793
▁crowned	-11.7796
▁jenkins	-11.7797
spire	-11.7797
▁flagship	-11.78
1935	-11.7801
▁dump	-11.7802
▁rochester	-11.7802
1937	-11.7803
▁noel	-11.7803
▁savannah	-11.7803
▁baltic	-11.7803
arte	-11.7803
▁allison	-11.7805
▁jeffrey	-11.7807
▁minds	-11.7808
kol	-11.7809
crypt	-11.7809
▁peered	-11.781
▁bau	-11.781
▁mikhail	-11.7811
▁instinct	-11.7813
utc	-11.7814
▁bates	-11.7815
▁introducing	-11.7815
▁prom	-11.7822
▁lacked	-11.7823
▁prussia	-11.7825
▁undertaken	-11.7825
▁tragedy	-11.7825
▁nerves	-11.7825
service	-11.7826
▁pill	-11.7828
▁investments	-11.783
▁mothers	-11.783
▁dip	-11.783
▁buc	-11.7833
cris	-11.7833
▁berry	-11.7835
▁exchanged	-11.7835
dock	-11.7835
▁exempt	-11.7836
▁fears	-11.7836
emia	-11.7837
▁benedict	-11.7839
▁shannon	-11.7839
assi	-11.7841
▁roh	-11.7841
rest	-11.7842
▁confederation	-11.7843
▁mercedes	-11.7843
▁invaded	-11.7843
▁feud	-11.7847
▁sten	-11.7847
110	-11.7851
▁primitive	-11.7852
▁brooke	-11.7853
▁dancers	-11.7854
▁huh	-11.7857
▁cyclist	-11.7858
▁dana	-11.7858
118	-11.7861
▁capability	-11.7863
▁$7	-11.7864
named	-11.7866
▁pollution	-11.7866
▁sandwich	-11.7867
▁tonnes	-11.7868
▁marginal	-11.7868
▁vamp	-11.7869
▁lime	-11.7874
▁#3	-11.7877
opa	-11.7878
▁ign	-11.7878
▁deserved	-11.7879
▁snail	-11.7882
▁tutor	-11.7883
orum	-11.7883
▁unified	-11.7883
▁crisp	-11.7883
▁cru	-11.7885
▁gloria	-11.7885
▁wipe	-11.7885
along	-11.7886
▁bert	-11.7886
▁elephant	-11.7888
▁sandstone	-11.7888
ryn	-11.789
▁synthesizer	-11.7892
rigg	-11.7892
▁chal	-11.7892
▁complained	-11.7894
▁float	-11.7894
avon	-11.7895
lord	-11.7895
▁excessive	-11.7895
▁laying	-11.7897
hello	-11.7899
▁incidents	-11.7899
▁tire	-11.79
pia	-11.7901
▁dre	-11.7903
▁preventing	-11.7904
▁foods	-11.7904
▁barr	-11.7907
▁analog	-11.7907
▁proceeds	-11.7907
▁volcanic	-11.7908
cip	-11.7909
▁maxwell	-11.7911
▁basil	-11.7912
▁chateau	-11.7915
▁sco	-11.7918
mmer	-11.7918
yat	-11.7918
▁acclaim	-11.7919
▁particle	-11.7922
▁baroque	-11.7922
lett	-11.7924
▁yield	-11.7924
▁fletcher	-11.7927
glass	-11.7927
▁blamed	-11.7927
pai	-11.7929
▁hue	-11.793
1947	-11.7931
▁metric	-11.7932
▁logical	-11.7935
dem	-11.7936
▁nim	-11.7937
▁curves	-11.7938
▁exhibits	-11.7943
▁flowering	-11.7943
▁freeze	-11.7943
▁semifinals	-11.7944
▁sabha	-11.7945
▁soup	-11.7946
scope	-11.7947
▁roberto	-11.7948
ect	-11.7949
▁nr	-11.795
social	-11.7951
▁reflecting	-11.7952
▁limbs	-11.7955
▁kali	-11.7958
▁performs	-11.7958
▁jesuit	-11.796
▁charleston	-11.7961
▁stretching	-11.7963
▁rebounds	-11.7964
▁laurel	-11.7966
▁surfaces	-11.7967
thon	-11.7968
tik	-11.7968
eon	-11.797
▁rotten	-11.7972
▁sanders	-11.7972
▁ancestors	-11.7972
gee	-11.7972
▁wyoming	-11.7974
▁pockets	-11.7974
hil	-11.7975
160	-11.7978
▁curiosity	-11.7979
▁pun	-11.7979
▁sca	-11.798
▁interpret	-11.7982
▁lantern	-11.7984
▁fiscal	-11.7984
▁bombers	-11.7986
▁contestant	-11.7986
▁saf	-11.7986
▁compare	-11.7987
▁autobiography	-11.7988
trust	-11.7989
▁consul	-11.7989
▁isabel	-11.799
127	-11.799
▁kana	-11.7991
▁remarked	-11.7993
combe	-11.7993
▁ef	-11.7993
▁cornell	-11.7993
▁dial	-11.7993
stru	-11.7994
▁estonia	-11.7998
▁louder	-11.8001
▁trailed	-11.8001
▁compliment	-11.8002
▁projection	-11.8003
▁cons	-11.8006
▁ellie	-11.8007
▁cognitive	-11.8007
▁sings	-11.8007
fri	-11.8008
tane	-11.8009
▁elegant	-11.8012
▁bells	-11.8013
▁jung	-11.8013
▁temper	-11.8015
▁evangelical	-11.8016
▁keel	-11.8019
▁forbes	-11.802
▁caves	-11.8021
▁thames	-11.8022
,000,000	-11.8024
▁cope	-11.8026
▁clergy	-11.8026
▁mechanisms	-11.8027
▁johnston	-11.8028
▁precisely	-11.8029
▁norton	-11.803
▁charitable	-11.803
thra	-11.8031
▁watts	-11.8032
176	-11.8037
▁distracted	-11.8039
▁shark	-11.8041
▁duchy	-11.8042
spor	-11.8044
chee	-11.8046
through	-11.8046
▁suspicion	-11.8046
▁drawer	-11.805
▁cb	-11.805
▁detection	-11.8051
▁fringe	-11.8053
▁parted	-11.8054
▁5,000	-11.8055
▁unofficial	-11.8056
tour	-11.8057
▁jai	-11.8057
bari	-11.8057
mma	-11.8059
▁eclipse	-11.8059
▁molecules	-11.806
▁dose	-11.8061
▁gag	-11.8062
▁superman	-11.8062
▁magnet	-11.8063
▁testimony	-11.8064
▁lgbt	-11.8064
▁candle	-11.8067
zone	-11.8068
▁shine	-11.8068
▁quint	-11.807
▁homer	-11.8072
▁airplane	-11.8072
▁telescope	-11.8073
▁afc	-11.8078
▁curtain	-11.808
▁dressing	-11.808
▁verbal	-11.8082
▁monuments	-11.8082
lough	-11.8082
▁preceding	-11.8082
▁baldwin	-11.8083
▁rau	-11.8084
▁knockout	-11.8085
tics	-11.8087
▁ceremonies	-11.8087
1938	-11.8088
▁postal	-11.8089
▁tad	-11.8089
inger	-11.8091
▁inaugurated	-11.8092
▁fights	-11.8093
▁allocated	-11.8093
opus	-11.8095
isha	-11.8097
▁measurement	-11.8097
▁geometry	-11.8098
▁lacking	-11.8099
▁shrug	-11.8101
▁cel	-11.8101
▁buddha	-11.8103
host	-11.8103
▁gunner	-11.8106
▁commemorate	-11.8106
▁refusing	-11.8106
/1	-11.8108
rot	-11.8108
▁sherman	-11.8109
▁surprisingly	-11.8109
▁remind	-11.8109
▁tribunal	-11.8111
▁assuming	-11.8113
▁habitats	-11.8113
▁finalist	-11.8114
▁complaints	-11.8116
▁heinrich	-11.8116
▁tribune	-11.8116
hoff	-11.8116
1942	-11.8117
▁jax	-11.8122
▁jade	-11.8124
▁skeleton	-11.8125
▁hurling	-11.8125
▁foundations	-11.8126
▁spice	-11.8126
▁blink	-11.8126
▁roc	-11.8128
tf	-11.8131
▁1959,	-11.8132
pas	-11.8132
▁groan	-11.8135
▁leak	-11.8136
▁organizing	-11.8136
▁employer	-11.814
cuff	-11.8141
▁orphan	-11.8141
hau	-11.8145
▁hammond	-11.815
▁supposedly	-11.8154
lav	-11.8154
were	-11.8158
▁pent	-11.8158
▁saba	-11.8158
bei	-11.8159
▁naples	-11.816
▁continuously	-11.8161
▁growl	-11.8164
▁longtime	-11.8165
bj	-11.8168
pore	-11.8168
▁voluntary	-11.8168
▁starter	-11.817
alu	-11.817
▁cursed	-11.817
▁provider	-11.8173
▁exploring	-11.8173
mass	-11.8175
▁matsu	-11.8175
evi	-11.8177
▁summon	-11.8177
mik	-11.8179
fs	-11.818
▁boiler	-11.8182
perhaps	-11.8182
▁limb	-11.8183
▁flint	-11.8185
deep	-11.8185
▁360	-11.8189
▁eco	-11.819
▁acknowledge	-11.819
▁countryside	-11.8191
▁encouraging	-11.8192
fit	-11.8193
▁airborne	-11.8196
▁maker	-11.8196
▁lasting	-11.8197
oides	-11.8198
▁specimen	-11.8201
▁phantom	-11.8202
▁cairo	-11.8202
kat	-11.8203
▁dealer	-11.8204
▁madame	-11.8204
▁agnes	-11.8206
▁answering	-11.8207
▁greene	-11.8207
▁stalin	-11.8208
uto	-11.8209
▁deceased	-11.821
thus	-11.8213
building	-11.8216
▁achieving	-11.8216
▁strand	-11.8217
▁owing	-11.8218
▁interference	-11.8221
▁correspondence	-11.8221
inn	-11.8224
▁investigated	-11.8225
▁mg	-11.8225
ounce	-11.8228
quarter	-11.823
▁caution	-11.8231
▁1956,	-11.8232
▁exam	-11.8233
nac	-11.8234
▁slender	-11.8235
▁elm	-11.8235
▁subspecies	-11.8236
▁wc	-11.8237
illy	-11.824
iron	-11.824
▁museums	-11.824
▁contra	-11.8244
blanc	-11.8246
▁armoured	-11.8247
▁imported	-11.8249
train	-11.8249
▁carnival	-11.825
▁prose	-11.8251
▁timing	-11.8251
▁scare	-11.8252
▁factories	-11.8253
▁auditorium	-11.8255
sdale	-11.8256
▁eb	-11.8259
▁seventy	-11.826
worthy	-11.826
fiction	-11.8262
kee	-11.8264
▁missiles	-11.8265
▁1837	-11.8265
▁decoration	-11.8267
▁doyle	-11.8268
▁marty	-11.827
▁dong	-11.8272
▁blocking	-11.8273
suke	-11.8275
▁providence	-11.8276
▁genius	-11.8276
tering	-11.8278
uel	-11.8279
▁sculptures	-11.8281
▁hack	-11.8281
these	-11.8281
▁fest	-11.8282
▁churchill	-11.8283
▁kle	-11.8286
chor	-11.8288
▁pep	-11.8288
▁wie	-11.8289
▁scots	-11.8289
▁alphabet	-11.8291
▁commercially	-11.8293
lead	-11.8294
▁talented	-11.8294
▁christine	-11.8295
cb	-11.8295
▁170	-11.8296
▁reluctantly	-11.8296
▁consistently	-11.8297
▁welcomed	-11.8297
lange	-11.8297
dance	-11.8298
▁disorders	-11.8298
▁fitting	-11.8298
▁yanked	-11.8299
▁dom	-11.8299
▁jointly	-11.83
▁monkey	-11.8301
▁straightened	-11.8301
▁griffith	-11.8303
rise	-11.8304
▁melt	-11.8304
▁bulb	-11.8304
ryu	-11.8305
▁1838	-11.8305
▁ought	-11.8308
▁expectations	-11.8308
▁clyde	-11.8308
tb	-11.8309
lap	-11.831
nett	-11.8311
▁outlaw	-11.8312
brother	-11.8312
▁affection	-11.8313
▁drank	-11.8314
▁1841	-11.8315
▁spat	-11.8316
%	-11.8316
1941	-11.8317
▁portsmouth	-11.8318
▁developments	-11.8319
▁alright	-11.8321
▁availability	-11.8323
▁essence	-11.8323
▁lava	-11.8323
etz	-11.8324
▁bam	-11.8324
ride	-11.8324
▁thriller	-11.8324
▁herb	-11.8325
▁contacts	-11.8327
▁crab	-11.8327
gers	-11.8328
▁gains	-11.8331
▁depths	-11.8332
▁iso	-11.8335
▁opinions	-11.8335
▁mou	-11.8336
▁cain	-11.8337
▁speculation	-11.8338
▁notorious	-11.8338
▁shout	-11.8341
▁subfamily	-11.8343
izer	-11.8344
▁errors	-11.8346
lice	-11.8346
▁barber	-11.8346
▁emb	-11.8346
▁legitimate	-11.8348
▁babies	-11.8348
eto	-11.8349
▁shattered	-11.835
▁graduates	-11.8352
▁retrieve	-11.8352
▁licked	-11.8353
▁confrontation	-11.8354
▁streaming	-11.8354
▁regulatory	-11.8358
▁reinforced	-11.8359
ality	-11.836
fil	-11.8361
buck	-11.8361
▁brent	-11.8361
tho	-11.8361
▁shiver	-11.8362
▁janeiro	-11.8363
▁blessing	-11.8363
▁needle	-11.8364
▁expressway	-11.8367
▁motivation	-11.8367
▁maternal	-11.8367
▁thur	-11.8368
▁europa	-11.8369
aver	-11.8371
uca	-11.8371
▁clarinet	-11.8373
▁hatred	-11.8374
▁wad	-11.8375
ried	-11.8376
▁1958,	-11.8376
▁considers	-11.8377
▁filter	-11.8378
▁gameplay	-11.8378
imo	-11.8379
▁rem	-11.8381
▁sterling	-11.8384
natal	-11.8384
▁comm	-11.8385
▁eased	-11.8385
▁locker	-11.8387
bn	-11.8388
▁mighty	-11.8388
von	-11.8389
▁shakes	-11.839
▁showcase	-11.839
modern	-11.8391
▁anticipation	-11.8391
▁integrity	-11.8391
▁hissed	-11.8394
▁constituent	-11.8396
▁cologne	-11.8396
▁geoffrey	-11.8396
▁governance	-11.8396
▁reflects	-11.8397
▁detected	-11.84
text	-11.84
▁leagues	-11.8401
▁devotion	-11.8401
▁sutton	-11.8402
pres	-11.8402
▁flavor	-11.8403
▁beaver	-11.8404
▁exceed	-11.8405
▁crowded	-11.8406
▁burma	-11.8406
▁slovakia	-11.841
eda	-11.8412
▁miners	-11.8412
▁mole	-11.8413
▁explosive	-11.8414
mg	-11.8415
▁slap	-11.8417
▁atlas	-11.8418
▁stephan	-11.8418
▁erin	-11.8418
▁applying	-11.8418
▁pupil	-11.842
lings	-11.8425
▁jerome	-11.8426
▁screenwriter	-11.8426
▁clever	-11.8427
schen	-11.8427
psych	-11.8428
▁receptor	-11.8429
▁whispers	-11.8432
▁millions	-11.8432
▁vacuum	-11.8435
▁medication	-11.8435
▁successive	-11.8435
▁rust	-11.8437
▁battlefield	-11.8437
▁critically	-11.8439
▁mhz	-11.844
tty	-11.8442
break	-11.8444
▁carmen	-11.8444
▁leopold	-11.8445
▁seating	-11.8446
▁toxic	-11.8448
▁winnipeg	-11.845
ovo	-11.845
▁deco	-11.845
mah	-11.8451
▁107	-11.8452
▁rogue	-11.8452
ogo	-11.8452
▁budapest	-11.8455
190	-11.8456
▁mickey	-11.8456
1932	-11.846
▁chor	-11.846
▁1835	-11.8461
▁tunnels	-11.8462
▁assumption	-11.8465
▁exciting	-11.8465
▁toys	-11.8466
▁memoir	-11.8467
▁mata	-11.8468
▁tanzania	-11.847
▁lanes	-11.8474
▁seoul	-11.8475
▁nsw	-11.8478
▁turbo	-11.848
▁proclaimed	-11.8482
▁static	-11.8482
▁aquatic	-11.8482
▁ashes	-11.8483
jana	-11.8483
▁steadily	-11.8485
lek	-11.8485
▁correctly	-11.8486
▁hil	-11.8487
bou	-11.849
▁beds	-11.849
block	-11.8493
▁initiatives	-11.8495
▁gazed	-11.8502
former	-11.8503
▁metallic	-11.8504
▁350	-11.8505
120	-11.8506
1,000	-11.8506
1934	-11.8509
▁1839	-11.8509
▁jules	-11.8509
▁apologize	-11.851
purpose	-11.8512
▁fern	-11.8513
▁108	-11.8513
▁weakness	-11.8514
▁decorative	-11.8515
kul	-11.8515
▁burnt	-11.8523
▁hun	-11.8523
every	-11.8523
▁ming	-11.8524
▁slapped	-11.8525
chow	-11.8527
▁noun	-11.8528
▁morton	-11.8529
▁paths	-11.853
▁intentions	-11.8531
▁depicts	-11.8532
▁asylum	-11.8534
clar	-11.8535
▁bryn	-11.8535
▁1842	-11.8538
183	-11.8539
sund	-11.8539
▁valencia	-11.854
graphic	-11.854
▁favorable	-11.854
▁differential	-11.8542
fp	-11.8543
▁patriots	-11.8546
▁valle	-11.8547
▁feather	-11.8548
▁dawson	-11.8549
▁bee	-11.8549
▁peel	-11.855
▁pagan	-11.8552
▁1918,	-11.8556
▁junk	-11.8558
source	-11.8558
▁graz	-11.8558
inski	-11.8559
▁unaware	-11.8559
▁ginger	-11.8559
viv	-11.8561
▁schi	-11.8562
▁affiliation	-11.8564
▁narrator	-11.8564
▁gaelic	-11.8565
▁reel	-11.8566
gara	-11.8568
▁nh	-11.8569
▁ulster	-11.857
▁embarked	-11.857
▁dane	-11.8572
tang	-11.8572
▁obtaining	-11.8573
▁prussian	-11.8574
▁ole	-11.8574
▁turret	-11.8575
gil	-11.8575
maru	-11.8581
▁violation	-11.8582
▁recommendations	-11.8585
▁freeman	-11.8588
▁decisive	-11.8589
cons	-11.859
▁positioned	-11.859
▁ethiopia	-11.8592
▁sob	-11.8592
garde	-11.8593
▁shapes	-11.8593
▁mackenzie	-11.8594
▁castro	-11.8594
▁crews	-11.8594
▁zip	-11.8594
partisan	-11.8595
▁savings	-11.8596
▁1955,	-11.8597
▁khu	-11.8598
▁embedded	-11.8599
▁rely	-11.8609
▁ancestry	-11.8609
▁shirley	-11.8609
pyr	-11.8609
1933	-11.861
▁tavern	-11.861
▁kad	-11.8613
▁asset	-11.8614
▁container	-11.8615
▁koch	-11.8617
▁editors	-11.8619
▁rug	-11.8619
▁danced	-11.8619
baby	-11.8621
▁spoon	-11.8622
zzo	-11.8627
▁adjusted	-11.8627
▁tir	-11.8628
▁variables	-11.8628
dig	-11.8628
▁scroll	-11.8629
▁stro	-11.863
▁anticipated	-11.863
nut	-11.8633
▁pirate	-11.8633
▁humanitarian	-11.8634
▁dental	-11.8635
▁afl	-11.8636
▁1836	-11.8637
▁rumors	-11.8637
jay	-11.8637
▁reject	-11.8639
▁gateway	-11.864
▁ricky	-11.8642
▁buddhism	-11.8644
▁jacobs	-11.8645
▁nixon	-11.8645
▁risks	-11.8645
uchi	-11.8645
▁abs	-11.8645
▁exhaust	-11.8645
dri	-11.8645
▁pray	-11.8646
▁sauce	-11.8646
especially	-11.8647
cou	-11.8647
▁gotta	-11.8648
▁nottingham	-11.8649
▁surf	-11.8649
▁enclosed	-11.865
▁adolf	-11.865
▁lineage	-11.8651
▁challenger	-11.8653
gaz	-11.8653
▁concession	-11.8654
▁unsuccessfully	-11.8654
▁catches	-11.8655
▁spar	-11.8655
▁realizes	-11.8657
▁1844	-11.8659
▁remnants	-11.8659
▁bothered	-11.8659
▁mythology	-11.866
▁prints	-11.866
gha	-11.8661
▁percy	-11.8661
▁jessie	-11.8662
▁emigrated	-11.8663
▁backwards	-11.8664
▁delicious	-11.8665
allah	-11.8668
▁needing	-11.8669
keep	-11.8671
▁johan	-11.8671
▁tubes	-11.8673
▁beats	-11.8674
▁surround	-11.8675
▁natalie	-11.8675
▁singular	-11.8675
▁1949,	-11.8681
▁kang	-11.8684
▁delight	-11.8684
▁newman	-11.8686
▁stealing	-11.8689
▁systematic	-11.8691
pay	-11.8691
▁rental	-11.8694
▁miniature	-11.8695
▁picnic	-11.8696
yp	-11.8696
▁clip	-11.8698
bow	-11.8699
▁yankees	-11.8699
▁marching	-11.8699
▁boh	-11.8699
▁carnegie	-11.87
found	-11.87
▁meadow	-11.87
▁cong	-11.8701
▁decent	-11.8701
unde	-11.8702
jen	-11.8704
▁constable	-11.8705
bey	-11.8706
1944	-11.8708
▁nods	-11.8709
thorpe	-11.8709
▁gymnasium	-11.871
▁promises	-11.8711
▁bluff	-11.8712
▁pageant	-11.8714
▁pipeline	-11.8714
▁fancy	-11.8716
pierre	-11.8716
▁bavaria	-11.8716
▁roma	-11.8716
feng	-11.8718
heads	-11.8718
▁madonna	-11.872
▁rehabilitation	-11.872
public	-11.8722
▁stain	-11.8725
▁madras	-11.8727
rien	-11.8727
▁driveway	-11.8728
▁vernon	-11.8733
tea	-11.8734
▁ned	-11.8738
▁agreements	-11.8738
▁greeted	-11.8738
▁invested	-11.874
▁accord	-11.8741
mers	-11.8742
▁regiments	-11.8743
▁rica	-11.8743
▁shouting	-11.8744
▁1957,	-11.8745
▁framed	-11.8745
▁hyde	-11.8745
lith	-11.8745
▁requests	-11.8746
match	-11.8746
▁seeks	-11.8748
▁humanities	-11.8751
▁laurence	-11.8752
▁generous	-11.8752
▁wb	-11.8753
▁dairy	-11.8754
▁combine	-11.8754
▁gestured	-11.8756
▁dynamics	-11.8756
▁occupy	-11.8757
▁stride	-11.876
▁holocaust	-11.876
▁minneapolis	-11.876
▁laptop	-11.8762
9,000	-11.8762
▁holt	-11.8763
▁phenomena	-11.8766
▁submit	-11.8767
friend	-11.8767
square	-11.8768
▁illustrations	-11.8769
▁crimson	-11.8771
▁expertise	-11.8772
opsis	-11.8772
▁russ	-11.8772
▁tornado	-11.8776
▁pry	-11.8779
[...]
